<unk>	0
<s>	0
</s>	0
��	-0
����	-1
▁����	-2
���	-3
▁��������	-4
▁�����	-5
▁���	-6
▁������	-7
▁��	-8
▁�	-9
▁�������	-10
▁���������	-11
▁����������	-12
▁������������	-13
▁�����������	-14
▁������,	-15
▁�������,	-16
▁�����,	-17
▁����,	-18
▁��������,	-19
▁���,	-20
▁���������,	-21
▁������.	-22
▁�����.	-23
▁�������.	-24
▁�������������	-25
▁��,	-26
▁����.	-27
▁����������,	-28
▁��������.	-29
▁��������������	-30
-��	-31
▁���������.	-32
▁�����������,	-33
▁���.	-34
-����	-35
▁d	-36
es	-37
▁����������.	-38
ou	-39
▁������������,	-40
▁�,	-41
▁l	-42
en	-43
▁���������������	-44
▁(	-45
re	-46
▁m	-47
▁c	-48
▁-	-49
on	-50
▁�����������.	-51
▁p	-52
ai	-53
▁��.	-54
?��	-55
▁���-��	-56
!��	-57
▁de	-58
an	-59
er	-60
▁s	-61
▁�������������,	-62
qu	-63
▁1	-64
▁v	-65
-������	-66
▁������,��	-67
▁a	-68
ne	-69
▁������������.	-70
le	-71
▁qu	-72
ous	-73
�����	-74
▁�����,��	-75
������	-76
]��	-77
▁����,��	-78
▁2	-79
ri	-80
▁�������,��	-81
te	-82
..	-83
▁f	-84
oi	-85
),	-86
ur	-87
▁��������,��	-88
▁?	-89
et	-90
▁�����;	-91
▁t	-92
om	-93
ar	-94
,[	-95
▁������!	-96
▁�������;	-97
▁������;	-98
ent	-99
▁�����-��	-100
▁la	-101
▁3	-102
▁(���	-103
est	-104
il	-105
▁X	-106
▁j	-107
▁n	-108
▁b	-109
▁����.��	-110
me	-111
▁��������������,	-112
ais	-113
▁�������������.	-114
▁(����	-115
▁�����?	-116
▁�����!	-117
▁����;	-118
▁���,��	-119
▁�������.��	-120
as	-121
▁�������!	-122
▁�������?	-123
▁���?	-124
▁�������:	-125
▁������?	-126
ie	-127
,��	-128
▁le	-129
▁vous	-130
-��������	-131
▁������.��	-132
▁��������;	-133
▁et	-134
tre	-135
▁����?	-136
is	-137
▁����-��	-138
▁que	-139
▁������:	-140
it	-141
au	-142
lle	-143
▁V	-144
▁����!	-145
in	-146
▁g	-147
▁���������,��	-148
ch	-149
▁M	-150
our	-151
os	-152
us	-153
▁���!	-154
▁ma	-155
▁les	-156
▁�.	-157
▁��������?	-158
).	-159
ve	-160
▁I	-161
.[	-162
ce	-163
▁u	-164
-�������	-165
▁�����.��	-166
▁���-������	-167
▁��,��	-168
▁��������:	-169
▁r	-170
ons	-171
▁18	-172
▁ch	-173
▁���������;	-174
▁en	-175
▁�����:	-176
or	-177
ait	-178
▁��.��	-179
at	-180
ol	-181
and	-182
▁��������.��	-183
▁����������,��	-184
▁�����-������	-185
▁pas	-186
▁���������?	-187
mp	-188
▁��������!	-189
-�	-190
▁je	-191
▁com	-192
▁����:	-193
▁ce	-194
��.	-195
-���	-196
▁��-��	-197
▁4	-198
ant	-199
ien	-200
▁(��	-201
II	-202
▁������?��	-203
-����������	-204
▁�.��.	-205
al	-206
▁��?	-207
[3	-208
▁N	-209
▁���;	-210
▁���������:	-211
▁��������������.	-212
out	-213
▁ne	-214
ap	-215
▁L	-216
▁mon	-217
▁���������!	-218
eu	-219
ans	-220
▁des	-221
▁���-����	-222
se	-223
▁�����?��	-224
▁h	-225
,[1	-226
▁������!��	-227
ic	-228
ui	-229
▁un	-230
▁���?��	-231
ire	-232
▁au	-233
12	-234
ier	-235
ont	-236
ment	-237
▁est	-238
▁����������;	-239
[2	-240
▁���-��,	-241
am	-242
de	-243
▁C	-244
ain	-245
rien	-246
▁par	-247
▁(���.	-248
▁��-������	-249
▁����-������	-250
ois	-251
▁pl	-252
▁tr	-253
�����,	-254
▁�����������,��	-255
,[2	-256
▁du	-257
▁re	-258
▁���:	-259
▁���.��	-260
▁����?��	-261
▁��������!��	-262
les	-263
▁il	-264
▁qui	-265
▁����!��	-266
▁A	-267
que	-268
▁pr	-269
-�����	-270
�������	-271
▁������-��	-272
▁e	-273
▁XX	-274
▁����������:	-275
ux	-276
ere	-277
▁sa	-278
▁��!	-279
����,	-280
▁�����!��	-281
cou	-282
▁bien	-283
ourien	-284
ourienne	-285
▁(���.).	-286
▁��������?��	-287
▁���������.��	-288
▁(�	-289
..��	-290
ereur	-291
▁pour	-292
▁tout	-293
mpereur	-294
▁�������!��	-295
▁��-����������	-296
ab	-297
ff	-298
▁XV	-299
▁(�����	-300
el	-301
ez	-302
res	-303
otre	-304
▁�������?��	-305
00	-306
ran	-307
uis	-308
▁gr	-309
▁me	-310
▁dans	-311
▁(������	-312
▁���-��.	-313
ag	-314
ir	-315
III	-316
ion	-317
Empereur	-318
▁�����.]	-319
[1	-320
un	-321
ris	-322
tes	-323
▁XI	-324
▁1812	-325
▁���-���	-326
▁���������!��	-327
▁E	-328
vez	-329
aire	-330
▁Mos	-331
▁une	-332
▁����������!	-333
▁�����������;	-334
end	-335
mes	-336
▁12	-337
▁in	-338
▁dit	-339
▁nous	-340
▁��-���	-341
▁(�������	-342
onn	-343
▁plus	-344
▁���.]	-345
-���������	-346
▁���������?��	-347
ig	-348
op	-349
,[3	-350
ieur	-351
▁hom	-352
▁�����),	-353
-�����������	-354
[4	-355
▁5	-356
▁6	-357
ouv	-358
▁24	-359
▁se	-360
onne	-361
▁comme	-362
▁������),	-363
▁(��������	-364
▁����������?	-365
▁����������.��	-366
eau	-367
ine	-368
oir	-369
▁13	-370
icol	-371
icolas	-372
▁Moscou	-373
▁��-������,	-374
▁��;	-375
▁���!��	-376
������,	-377
.[3	-378
▁26	-379
ille	-380
vous	-381
▁grand	-382
▁�������)	-383
▁�������-��	-384
▁9	-385
▁o	-386
oil	-387
▁25	-388
▁mes	-389
▁Nicolas	-390
▁������)	-391
av	-392
▁8	-393
ive	-394
▁11	-395
▁II	-396
ieux	-397
▁cet	-398
▁7	-399
.[2	-400
▁180	-401
▁lui	-402
▁moi	-403
onsieur	-404
▁������.]	-405
▁�������),	-406
arm	-407
ens	-408
▁Il	-409
▁di	-410
oute	-411
usse	-412
�����.	-413
-�������,	-414
▁����-��,	-415
▁�������.]��	-416
▁���������),	-417
▁������������;	-418
ot	-419
si	-420
000	-421
?[2	-422
ard	-423
aut	-424
▁15	-425
▁Le	-426
ours	-427
▁fer	-428
▁peu	-429
▁cher	-430
▁comp	-431
▁�.��.,	-432
������.	-433
▁������-������	-434
▁������������,��	-435
em	-436
ut	-437
�,	-438
,[4	-439
.[1	-440
ers	-441
rie	-442
▁30	-443
▁Ma	-444
▁am	-445
▁mal	-446
▁suis	-447
▁�����)	-448
▁��������.]��	-449
▁�������������;	-450
�.	-451
app	-452
▁14	-453
▁ai	-454
▁on	-455
▁�!	-456
▁�?	-457
able	-458
ante	-459
ique	-460
mand	-461
voir	-462
▁000	-463
▁Vous	-464
▁fait	-465
▁voil	-466
▁homme	-467
▁�������.]	-468
▁������.]��	-469
▁�����������?	-470
Eh	-471
ac	-472
ue	-473
▁10	-474
▁17	-475
▁22	-476
▁28	-477
▁si	-478
-��,	-479
aris	-480
erre	-481
tait	-482
▁cel	-483
▁dis	-484
▁ent	-485
▁mar	-486
▁beau	-487
▁cons	-488
▁mais	-489
����.	-490
▁����.]��	-491
-��������,	-492
▁����-����	-493
▁�����.]��	-494
▁��������)	-495
▁�����������:	-496
bl	-497
ct	-498
ang	-499
auv	-500
che	-501
vec	-502
▁2)	-503
▁29	-504
▁XXX	-505
▁enf	-506
▁sur	-507
▁Mais	-508
▁leur	-509
▁Votre	-510
▁faire	-511
▁��?��	-512
▁monsieur	-513
▁����-��.	-514
▁��-�������	-515
!�	-516
ci	-517
!..	-518
ler	-519
lez	-520
men	-521
ort	-522
rin	-523
uss	-524
▁1)	-525
▁16	-526
▁20	-527
▁32	-528
▁ar	-529
▁cr	-530
▁XIV	-531
▁��:	-532
ouver	-533
▁avec	-534
▁sont	-535
▁24-��	-536
▁�������!..	-537
▁��������),	-538
▁��������.]	-539
▁������������:	-540
▁�����������.��	-541
ra	-542
▁i	-543
ieu	-544
man	-545
mps	-546
oup	-547
ter	-548
▁31	-549
▁su	-550
▁vu	-551
�[3	-552
Vous	-553
jest	-554
▁III	-555
▁Nap	-556
▁cap	-557
▁ses	-558
▁son	-559
▁1-��	-560
▁conn	-561
▁dire	-562
onneur	-563
▁cette	-564
▁dites	-565
▁��!��	-566
▁���),	-567
▁����)	-568
▁Majest	-569
▁��-����	-570
▁�����!..	-571
▁�����������!	-572
▁�����-�������	-573
pp	-574
st	-575
ta	-576
![2	-577
?[3	-578
gne	-579
onc	-580
ore	-581
ral	-582
rit	-583
▁35	-584
▁40	-585
▁42	-586
▁pu	-587
▁te	-588
iens	-589
iers	-590
ouve	-591
▁XVI	-592
▁jam	-593
▁nom	-594
▁ser	-595
▁elle	-596
▁fran	-597
▁12-��	-598
▁26-��	-599
▁enfant	-600
▁�����).	-601
▁��������!..	-602
-������������	-603
▁����������),	-604
▁�����-������,	-605
▁����������!��	-606
Ah	-607
ob	-608
ale	-609
dre	-610
oit	-611
ouj	-612
rai	-613
ser	-614
▁19	-615
▁21	-616
▁23	-617
▁27	-618
▁33	-619
▁34	-620
▁36	-621
▁37	-622
▁38	-623
▁39	-624
▁43	-625
▁IV	-626
▁IX	-627
▁al	-628
▁vo	-629
igne	-630
tres	-631
▁Les	-632
▁vie	-633
ation	-634
▁fera	-635
▁part	-636
▁prin	-637
▁quel	-638
▁tous	-639
▁���)	-640
▁maman	-641
▁hommes	-642
▁jamais	-643
▁����),	-644
▁(���.).]	-645
▁(���������	-646
▁����-�����	-647
▁������!]��	-648
▁���������)	-649
▁���������.]	-650
�?	-651
![3	-652
-�,	-653
?[1	-654
Cur	-655
dat	-656
hom	-657
ich	-658
ner	-659
▁3)	-660
▁41	-661
▁av	-662
▁ca	-663
▁ex	-664
▁gu	-665
▁ou	-666
elle	-667
orte	-668
▁181	-669
▁XII	-670
▁aux	-671
▁ont	-672
▁sol	-673
▁2-��	-674
▁Vive	-675
▁avez	-676
▁bons	-677
▁donc	-678
▁donn	-679
▁fois	-680
▁touj	-681
▁25-��	-682
▁capit	-683
▁conna	-684
▁entre	-685
▁mieux	-686
▁tante	-687
▁votre	-688
▁demand	-689
▁guerre	-690
▁soldat	-691
▁���?..	-692
▁toujours	-693
▁������).	-694
▁�������!�	-695
▁����-������,	-696
▁���������.]��	-697
▁�����������.]	-698
▁������������.��	-699
ge	-700
iv	-701
ov	-702
pr	-703
rn	-704
ti	-705
ul	-706
age	-707
all	-708
ble	-709
com	-710
ert	-711
oss	-712
une	-713
use	-714
▁Et	-715
▁VI	-716
▁ri	-717
,[23	-718
ains	-719
core	-720
ites	-721
llez	-722
olon	-723
rent	-724
▁VII	-725
▁aff	-726
▁gar	-727
▁mot	-728
▁per	-729
▁sac	-730
choss	-731
ierre	-732
ments	-733
▁VIII	-734
▁cCur	-735
▁chos	-736
▁deux	-737
▁peup	-738
▁sans	-739
▁Napol	-740
▁celui	-741
▁nouve	-742
-�����,	-743
▁prince	-744
▁����.]	-745
▁������!..	-746
▁������!���	-747
-�������������	-748
▁����������?��	-749
▁��-����������.	-750
▁������-�������	-751
-?	-752
Le	-753
dr	-754
gr	-755
ho	-756
▁.	-757
.[4	-758
anc	-759
eur	-760
eut	-761
iti	-762
mol	-763
nem	-764
oin	-765
ond	-766
ten	-767
tez	-768
uel	-769
▁50	-770
▁dr	-771
,[11	-772
Mais	-773
ance	-774
avez	-775
cend	-776
coup	-777
▁XIX	-778
▁XXV	-779
▁bat	-780
▁fem	-781
▁man	-782
▁res	-783
▁ret	-784
▁ven	-785
ables	-786
aient	-787
homme	-788
ordre	-789
▁XIII	-790
▁cont	-791
▁rien	-792
olonel	-793
▁13-��	-794
▁XVIII	-795
▁quand	-796
▁savez	-797
▁(���.)	-798
▁encore	-799
▁souver	-800
▁���!..	-801
▁���.]��	-802
▁���.��.	-803
▁�����!�	-804
▁beaucoup	-805
▁����!���	-806
▁������!�	-807
-���������,	-808
▁(����������	-809
▁�������-������	-810
▁�����������!��	-811
![	-812
89	-813
?[	-814
Il	-815
![4	-816
air	-817
ame	-818
aud	-819
aux	-820
den	-821
heu	-822
lat	-823
moi	-824
ole	-825
osa	-826
sez	-827
tis	-828
ule	-829
▁66	-830
▁En	-831
▁La	-832
▁pa	-833
�[1	-834
�[2	-835
,[15	-836
,[18	-837
,[19	-838
aine	-839
ilez	-840
oire	-841
pous	-842
rite	-843
▁XXI	-844
▁bon	-845
▁che	-846
▁ils	-847
▁jus	-848
▁off	-849
ainte	-850
amour	-851
heure	-852
ieurs	-853
ommes	-854
urait	-855
▁1805	-856
▁lais	-857
▁prop	-858
▁puis	-859
▁sauv	-860
▁tant	-861
▁chose	-862
▁garde	-863
▁jours	-864
▁march	-865
▁russe	-866
▁vieux	-867
honneur	-868
▁1812-�	-869
▁autres	-870
▁commen	-871
▁soldats	-872
▁����?]��	-873
▁�����-��,	-874
▁������?..	-875
����������	-876
▁(��������,	-877
▁�����-����	-878
▁���-������,	-879
▁�������!���	-880
▁��������-��	-881
-�����������,	-882
▁������������!	-883
▁�����-��������	-884
▁����������.]��	-885
▁�������������!	-886
▁�������������?	-887
20	-888
80	-889
[5	-890
cu	-891
dm	-892
ll	-893
ps	-894
ss	-895
▁z	-896
.��	-897
?..	-898
Com	-899
Non	-900
ace	-901
agn	-902
art	-903
cin	-904
eux	-905
hof	-906
ici	-907
ill	-908
ils	-909
ime	-910
lam	-911
tat	-912
▁Eh	-913
▁im	-914
▁ja	-915
▁mo	-916
▁pe	-917
,[21	-918
.[36	-919
Vive	-920
atri	-921
bour	-922
dame	-923
erci	-924
lles	-925
main	-926
nter	-927
orps	-928
puis	-929
teur	-930
▁666	-931
▁cas	-932
▁ces	-933
▁mis	-934
▁pet	-935
▁pos	-936
▁sou	-937
▁vou	-938
▁�-�	-939
aille	-940
autre	-941
auvre	-942
rance	-943
tesse	-944
▁1807	-945
▁Nous	-946
▁XVII	-947
▁cela	-948
▁coup	-949
▁cour	-950
▁dern	-951
▁peut	-952
▁sent	-953
▁vois	-954
igneur	-955
molens	-956
▁11-��	-957
▁avoir	-958
▁corps	-959
▁monde	-960
▁temps	-961
▁ville	-962
▁��!..	-963
llemand	-964
▁grande	-965
▁madame	-966
▁pauvre	-967
▁sainte	-968
▁sommes	-969
▁toutes	-970
▁�.��.;	-971
▁��-��,	-972
▁����!�	-973
▁colonel	-974
▁honneur	-975
�������,	-976
▁������.)	-977
▁souverain	-978
▁�����!���	-979
▁�����?]��	-980
▁�������).	-981
▁(���.).]��	-982
▁��������).	-983
▁��-��������	-984
▁������-����	-985
▁�������!]��	-986
▁(�����������	-987
▁���������!..	-988
▁����������.]	-989
-��������������	-990
▁��-����������,	-991
▁������������?��	-992
40	-993
41	-994
71	-995
78	-996
La	-997
be	-998
ft	-999
gn	-1000
if	-1001
ts	-1002
![1	-1003
.[9	-1004
Les	-1005
[35	-1006
ade	-1007
ars	-1008
des	-1009
dic	-1010
esp	-1011
esu	-1012
ger	-1013
ist	-1014
ite	-1015
lex	-1016
lis	-1017
ndr	-1018
off	-1019
per	-1020
rez	-1021
ril	-1022
▁Ah	-1023
▁ab	-1024
▁as	-1025
▁at	-1026
▁br	-1027
▁fr	-1028
�[4	-1029
,[10	-1030
,[16	-1031
,[29	-1032
,[39	-1033
,[43	-1034
-��!	-1035
?[26	-1036
aise	-1037
ants	-1038
chez	-1039
dmir	-1040
ente	-1041
ette	-1042
heur	-1043
iert	-1044
ions	-1045
onse	-1046
sset	-1047
unft	-1048
▁100	-1049
▁140	-1050
▁ami	-1051
▁app	-1052
▁bar	-1053
▁can	-1054
▁car	-1055
▁cau	-1056
▁con	-1057
▁die	-1058
▁for	-1059
▁fut	-1060
▁hab	-1061
▁ici	-1062
▁int	-1063
▁non	-1064
▁pro	-1065
▁red	-1066
▁roi	-1067
▁ter	-1068
aires	-1069
andre	-1070
decin	-1071
ettre	-1072
uelle	-1073
usses	-1074
▁12-�	-1075
▁3-��	-1076
▁6-��	-1077
▁XXXI	-1078
▁camp	-1079
▁chev	-1080
▁comb	-1081
▁diff	-1082
▁dois	-1083
▁fais	-1084
▁faut	-1085
▁mess	-1086
▁pass	-1087
▁publ	-1088
▁rest	-1089
▁sais	-1090
▁trop	-1091
▁vrai	-1092
▁�?��	-1093
▁��),	-1094
angine	-1095
autres	-1096
dicule	-1097
esuhof	-1098
iments	-1099
▁amiti	-1100
▁ennem	-1101
▁femme	-1102
▁jusqu	-1103
▁reste	-1104
▁trois	-1105
eausset	-1106
▁depuis	-1107
▁diable	-1108
▁donner	-1109
▁parole	-1110
▁peuple	-1111
▁����).	-1112
lexandre	-1113
▁affaire	-1114
▁partout	-1115
▁���!���	-1116
▁����!..	-1117
▁����?..	-1118
▁�����.)	-1119
▁capitale	-1120
▁publique	-1121
▁ridicule	-1122
▁��-����,	-1123
▁��-�����	-1124
▁�����?..	-1125
onseigneur	-1126
▁messieurs	-1127
▁�-�������,	-1128
▁��-������.	-1129
▁�������:��	-1130
▁�������]��	-1131
▁��������.)	-1132
▁��-�������,	-1133
▁���-������.	-1134
▁���-������?	-1135
▁�����-����,	-1136
▁������!..��	-1137
▁����������)	-1138
▁��������!���	-1139
▁��������?]��	-1140
▁���������-��	-1141
▁���������:��	-1142
▁(������������	-1143
▁���������!���	-1144
▁����������-��	-1145
▁������������)	-1146
▁��-����������?	-1147
▁�������������:	-1148
▁������-��������	-1149
▁�������-�������	-1150
02	-1151
03	-1152
06	-1153
09	-1154
23	-1155
27	-1156
29	-1157
35	-1158
57	-1159
60	-1160
63	-1161
70	-1162
72	-1163
73	-1164
74	-1165
75	-1166
76	-1167
77	-1168
79	-1169
84	-1170
87	-1171
90	-1172
96	-1173
En	-1174
ah	-1175
br	-1176
du	-1177
id	-1178
im	-1179
je	-1180
ns	-1181
ro	-1182
sp	-1183
vi	-1184
,[6	-1185
.).	-1186
Mon	-1187
[31	-1188
[41	-1189
abv	-1190
amb	-1191
ann	-1192
aum	-1193
ces	-1194
der	-1195
env	-1196
ige	-1197
iss	-1198
lin	-1199
oci	-1200
ome	-1201
ong	-1202
org	-1203
orm	-1204
ors	-1205
ouz	-1206
pos	-1207
rem	-1208
rib	-1209
rif	-1210
riv	-1211
sch	-1212
▁86	-1213
▁Au	-1214
▁cl	-1215
▁co	-1216
▁da	-1217
▁ge	-1218
▁hu	-1219
▁lo	-1220
,[14	-1221
.[13	-1222
.[38	-1223
anqu	-1224
eaux	-1225
emin	-1226
enir	-1227
erai	-1228
iril	-1229
jour	-1230
lato	-1231
oint	-1232
orts	-1233
ourn	-1234
pens	-1235
ppes	-1236
ques	-1237
ress	-1238
sile	-1239
sire	-1240
tend	-1241
uand	-1242
uite	-1243
ussi	-1244
vent	-1245
▁400	-1246
▁Col	-1247
▁Mon	-1248
▁act	-1249
▁all	-1250
▁anc	-1251
▁apr	-1252
▁arr	-1253
▁emp	-1254
▁fin	-1255
▁fit	-1256
▁nos	-1257
▁pat	-1258
▁pop	-1259
▁reg	-1260
▁tir	-1261
▁ver	-1262
▁vic	-1263
▁vol	-1264
▁��)	-1265
�.[1	-1266
appel	-1267
blime	-1268
chine	-1269
geois	-1270
icier	-1271
ienne	-1272
oupes	-1273
sible	-1274
▁1809	-1275
▁7-��	-1276
▁8-��	-1277
▁Cosa	-1278
▁XXXV	-1279
▁aime	-1280
▁brav	-1281
▁cous	-1282
▁dist	-1283
▁dont	-1284
▁drap	-1285
▁flam	-1286
▁jour	-1287
▁long	-1288
▁mang	-1289
▁quit	-1290
▁quoi	-1291
▁rend	-1292
▁sacr	-1293
▁tard	-1294
▁vers	-1295
▁vive	-1296
▁voit	-1297
▁�-��	-1298
abvier	-1299
armant	-1300
outouz	-1301
quelle	-1302
sement	-1303
teppes	-1304
▁10-��	-1305
▁22-��	-1306
▁Marie	-1307
▁Notre	-1308
▁assez	-1309
▁autre	-1310
▁avait	-1311
▁chair	-1312
▁comte	-1313
▁conse	-1314
▁doute	-1315
▁malgr	-1316
▁moins	-1317
▁notre	-1318
▁peine	-1319
▁petit	-1320
▁route	-1321
▁trouv	-1322
▁���!�	-1323
Comment	-1324
schiert	-1325
▁Naples	-1326
▁aurait	-1327
▁chemin	-1328
▁nation	-1329
▁parler	-1330
▁patrie	-1331
▁rester	-1332
▁sacrif	-1333
▁savoir	-1334
▁tranqu	-1335
▁����.)	-1336
▁����?]	-1337
empereur	-1338
▁(�����,	-1339
▁Colonne	-1340
▁demande	-1341
▁descend	-1342
▁ennemis	-1343
▁flammes	-1344
▁marcher	-1345
▁peuples	-1346
▁quelque	-1347
▁redoute	-1348
▁troupes	-1349
▁�����!]	-1350
▁Monsieur	-1351
▁bataille	-1352
▁commence	-1353
▁drapeaux	-1354
▁laquelle	-1355
▁malheure	-1356
▁officier	-1357
▁���?..��	-1358
▁����!]��	-1359
▁����?���	-1360
▁(���.).��	-1361
▁Alexandre	-1362
▁capitaine	-1363
▁������:��	-1364
-���������.	-1365
▁marschiert	-1366
▁����-��,��	-1367
▁������?���	-1368
-����������,	-1369
▁Monseigneur	-1370
▁������?..��	-1371
▁�������),��	-1372
▁�������-��,	-1373
▁��������?..	-1374
▁���������.)	-1375
▁���������?]	-1376
▁����-�������	-1377
▁���������?..	-1378
▁����������!..	-1379
▁������������?	-1380
▁�����-�������,	-1381
▁������������),	-1382
▁�����������.]��	-1383
▁������������!��	-1384
▁�������������),	-1385
▁�������������.]	-1386
.]	-1387
01	-1388
04	-1389
05	-1390
07	-1391
08	-1392
10	-1393
13	-1394
21	-1395
24	-1396
25	-1397
26	-1398
28	-1399
38	-1400
39	-1401
42	-1402
43	-1403
44	-1404
47	-1405
49	-1406
50	-1407
52	-1408
56	-1409
82	-1410
83	-1411
88	-1412
91	-1413
94	-1414
95	-1415
Ch	-1416
Ma	-1417
cl	-1418
ex	-1419
ib	-1420
lo	-1421
ls	-1422
ma	-1423
pl	-1424
pt	-1425
rs	-1426
ru	-1427
to	-1428
ug	-1429
um	-1430
Cap	-1431
Ide	-1432
anz	-1433
ast	-1434
aur	-1435
ber	-1436
bre	-1437
cer	-1438
cev	-1439
cht	-1440
con	-1441
cor	-1442
dez	-1443
dis	-1444
emp	-1445
ess	-1446
ets	-1447
ett	-1448
eul	-1449
fin	-1450
gen	-1451
iel	-1452
iez	-1453
ign	-1454
inc	-1455
inu	-1456
lev	-1457
lus	-1458
oie	-1459
ret	-1460
rig	-1461
rir	-1462
sen	-1463
ure	-1464
▁Ce	-1465
▁ac	-1466
▁ah	-1467
▁eu	-1468
▁na	-1469
▁ni	-1470
▁no	-1471
▁oh	-1472
▁tu	-1473
▁vi	-1474
�,[	-1475
�.[	-1476
![12	-1477
!���	-1478
-��.	-1479
Idev	-1480
Voil	-1481
ages	-1482
agne	-1483
aill	-1484
aint	-1485
ales	-1486
ames	-1487
ards	-1488
atre	-1489
chal	-1490
ctob	-1491
elor	-1492
enez	-1493
errn	-1494
fait	-1495
form	-1496
glis	-1497
gner	-1498
icht	-1499
ilit	-1500
inst	-1501
irer	-1502
ivre	-1503
jets	-1504
nemi	-1505
opin	-1506
oubl	-1507
pend	-1508
rand	-1509
ribu	-1510
riez	-1511
time	-1512
tran	-1513
urop	-1514
vice	-1515
▁1-�	-1516
▁2-�	-1517
▁ain	-1518
▁bes	-1519
▁cha	-1520
▁den	-1521
▁dev	-1522
▁dir	-1523
▁div	-1524
▁duc	-1525
▁env	-1526
▁ers	-1527
▁fat	-1528
▁feu	-1529
▁fil	-1530
▁fus	-1531
▁gen	-1532
▁imp	-1533
▁lim	-1534
▁pal	-1535
▁ref	-1536
▁rem	-1537
▁rou	-1538
▁sch	-1539
▁sub	-1540
▁tra	-1541
▁vin	-1542
▁vos	-1543
▁�.,	-1544
�.[2	-1545
Allez	-1546
Merci	-1547
agnie	-1548
bourg	-1549
elles	-1550
erden	-1551
ience	-1552
iller	-1553
obert	-1554
raire	-1555
rents	-1556
rible	-1557
sence	-1558
temps	-1559
tisan	-1560
ussie	-1561
▁13-�	-1562
▁1789	-1563
▁1811	-1564
▁1813	-1565
▁1820	-1566
▁4-��	-1567
▁Andr	-1568
▁Elle	-1569
▁Vinc	-1570
▁Voil	-1571
▁XXII	-1572
▁amie	-1573
▁amis	-1574
▁cent	-1575
▁ceux	-1576
▁comm	-1577
▁cosa	-1578
▁fond	-1579
▁ganz	-1580
▁main	-1581
▁mani	-1582
▁mout	-1583
▁pers	-1584
▁plut	-1585
▁prie	-1586
▁pris	-1587
▁prom	-1588
▁prov	-1589
▁quar	-1590
▁rais	-1591
▁rapp	-1592
▁sire	-1593
▁tris	-1594
▁veut	-1595
�,[21	-1596
�.[36	-1597
-��!��	-1598
amball	-1599
atique	-1600
atrice	-1601
ctobre	-1602
ennemi	-1603
entend	-1604
itants	-1605
onjour	-1606
pousez	-1607
rement	-1608
rigand	-1609
stique	-1610
▁15-��	-1611
▁1812.	-1612
▁Allez	-1613
▁Cette	-1614
▁Lelor	-1615
▁XXIII	-1616
▁admir	-1617
▁ainsi	-1618
▁allez	-1619
▁aussi	-1620
▁boire	-1621
▁bonne	-1622
▁canon	-1623
▁celle	-1624
▁compr	-1625
▁crois	-1626
▁erste	-1627
▁ferme	-1628
▁filez	-1629
▁fille	-1630
▁fourn	-1631
▁laiss	-1632
▁leurs	-1633
▁manqu	-1634
▁milit	-1635
▁offre	-1636
▁passe	-1637
▁point	-1638
▁popul	-1639
▁recev	-1640
▁toute	-1641
▁verle	-1642
▁��-�,	-1643
▁���?�	-1644
Nicolas	-1645
latoche	-1646
ritable	-1647
▁1)����	-1648
▁1805-�	-1649
▁2)����	-1650
▁braves	-1651
▁chance	-1652
▁cheval	-1653
▁compte	-1654
▁contre	-1655
▁devoir	-1656
▁entrez	-1657
▁faites	-1658
▁femmes	-1659
▁grands	-1660
▁incend	-1661
▁inform	-1662
▁lettre	-1663
▁maison	-1664
▁manger	-1665
▁palais	-1666
▁propos	-1667
▁regard	-1668
▁revoir	-1669
▁verser	-1670
▁��?���	-1671
▁����!]	-1672
������?	-1673
Ideville	-1674
issement	-1675
▁(���.)]	-1676
▁Vincent	-1677
▁compris	-1678
▁connais	-1679
▁malheur	-1680
▁nouveau	-1681
▁retiens	-1682
▁service	-1683
▁sublime	-1684
▁tristes	-1685
▁���-��:	-1686
��������	-1687
bourgeois	-1688
▁(������,	-1689
▁Allemand	-1690
▁Lelorgne	-1691
▁affaires	-1692
▁comtesse	-1693
▁derniers	-1694
▁distribu	-1695
▁honneurs	-1696
▁terrible	-1697
▁��-��-��	-1698
▁�����:��	-1699
▁�����]��	-1700
▁������!]	-1701
��������,	-1702
▁caustique	-1703
▁compagnie	-1704
▁contraire	-1705
▁courtisan	-1706
▁descendre	-1707
▁habitants	-1708
▁���-��.��	-1709
▁���-����,	-1710
▁�����-��!	-1711
▁�����?���	-1712
▁�������.)	-1713
▁(��������)	-1714
▁malheureux	-1715
▁sentiments	-1716
▁����-����,	-1717
▁������?]��	-1718
▁�������?..	-1719
▁�����-�����	-1720
▁�������?]��	-1721
▁��������:��	-1722
▁��������]��	-1723
▁���������).	-1724
▁�����-�����,	-1725
▁�������!..��	-1726
▁����������).	-1727
▁�����-������.	-1728
▁�������-�����	-1729
▁���������!]��	-1730
▁����������:��	-1731
▁�����������),	-1732
▁(�������������	-1733
▁����-���������	-1734
▁������-������,	-1735
▁����������),��	-1736
-���������������	-1737
▁��������-������	-1738
▁��������������!	-1739
);	-1740
.)	-1741
11	-1742
16	-1743
17	-1744
19	-1745
22	-1746
31	-1747
32	-1748
34	-1749
36	-1750
45	-1751
46	-1752
48	-1753
51	-1754
53	-1755
54	-1756
55	-1757
59	-1758
62	-1759
64	-1760
66	-1761
67	-1762
68	-1763
69	-1764
81	-1765
85	-1766
86	-1767
97	-1768
?!	-1769
Ce	-1770
ad	-1771
ba	-1772
ec	-1773
ip	-1774
iz	-1775
lt	-1776
mo	-1777
mu	-1778
na	-1779
sa	-1780
tr	-1781
tu	-1782
vr	-1783
�1	-1784
�;	-1785
�[	-1786
!�[	-1787
-�?	-1788
:��	-1789
;[2	-1790
Emp	-1791
Esp	-1792
Est	-1793
Ils	-1794
Mot	-1795
[33	-1796
ach	-1797
acr	-1798
aff	-1799
apt	-1800
arr	-1801
ass	-1802
cun	-1803
ect	-1804
ein	-1805
era	-1806
err	-1807
gal	-1808
ifs	-1809
ile	-1810
ili	-1811
imp	-1812
ins	-1813
int	-1814
ird	-1815
nes	-1816
nie	-1817
nom	-1818
obe	-1819
ord	-1820
oue	-1821
rat	-1822
ros	-1823
sem	-1824
ses	-1825
tem	-1826
tic	-1827
urs	-1828
vit	-1829
▁60	-1830
▁62	-1831
▁70	-1832
▁80	-1833
▁90	-1834
▁99	-1835
▁Ch	-1836
▁Cz	-1837
▁Ne	-1838
▁Va	-1839
▁Vo	-1840
▁ap	-1841
▁bl	-1842
▁fi	-1843
▁gl	-1844
▁id	-1845
▁nu	-1846
▁ro	-1847
▁ru	-1848
▁so	-1849
▁va	-1850
▁zu	-1851
!�[2	-1852
,[33	-1853
.[12	-1854
?�[3	-1855
Andr	-1856
Enle	-1857
Nous	-1858
agin	-1859
aime	-1860
aite	-1861
alli	-1862
aman	-1863
anis	-1864
arta	-1865
auff	-1866
bare	-1867
barr	-1868
chen	-1869
cher	-1870
chon	-1871
clam	-1872
ctor	-1873
cuse	-1874
dieu	-1875
eine	-1876
elez	-1877
ende	-1878
ener	-1879
ents	-1880
eorg	-1881
esch	-1882
esou	-1883
eule	-1884
fens	-1885
gent	-1886
ices	-1887
iden	-1888
ilna	-1889
inte	-1890
ionn	-1891
isme	-1892
llig	-1893
mode	-1894
mont	-1895
nent	-1896
nerg	-1897
oign	-1898
oins	-1899
oise	-1900
onde	-1901
oral	-1902
orel	-1903
osse	-1904
ouch	-1905
oupe	-1906
ovie	-1907
rait	-1908
rard	-1909
raux	-1910
rich	-1911
rieg	-1912
roce	-1913
ruct	-1914
sans	-1915
sist	-1916
tant	-1917
tons	-1918
trez	-1919
uant	-1920
urai	-1921
ures	-1922
▁110	-1923
▁120	-1924
▁130	-1925
▁150	-1926
▁160	-1927
▁5-�	-1928
▁7-�	-1929
▁Aut	-1930
▁Com	-1931
▁Ils	-1932
▁Mes	-1933
▁Non	-1934
▁Vos	-1935
▁Vou	-1936
▁agr	-1937
▁ann	-1938
▁arm	-1939
▁asi	-1940
▁cro	-1941
�	-1942
▁	-1943
,	-1944
.	-1945
e	-1946
s	-1947
-	-1948
a	-1949
i	-1950
n	-1951
r	-1952
u	-1953
o	-1954
?	-1955
t	-1956
l	-1957
!	-1958
m	-1959
;	-1960
d	-1961
c	-1962
p	-1963
:	-1964
1	-1965
v	-1966
2	-1967
)	-1968
(	-1969
3	-1970
[	-1971
]	-1972
I	-1973
h	-1974
f	-1975
q	-1976
0	-1977
4	-1978
g	-1979
b	-1980
8	-1981
6	-1982
X	-1983
5	-1984
V	-1985
9	-1986
7	-1987
j	-1988
z	-1989
M	-1990
E	-1991
x	-1992
C	-1993
L	-1994
A	-1995
N	-1996
