<unk>	0
<s>	0
</s>	0
▁�	-2.24863
▁��	-2.3083
▁���	-2.3707
▁�����	-2.60889
▁������	-2.76331
▁����	-2.78183
��	-3.06655
▁�������	-3.08097
�	-3.31254
���	-3.44546
▁��������	-3.53769
����	-3.65166
�����	-3.98368
▁���������	-4.11201
▁������,	-4.37805
▁	-4.46829
������	-4.47675
▁�����,	-4.52399
▁�������,	-4.56417
▁����,	-4.64173
▁����������	-4.72941
▁��������,	-4.97222
,	-5.05271
�������	-5.10567
▁���,	-5.16602
��,	-5.1872
���,	-5.20723
����,	-5.33539
�,	-5.33556
▁������.	-5.3531
▁�����.	-5.38024
▁��,	-5.47819
▁�����������	-5.51161
▁�������.	-5.5167
�����,	-5.6142
▁����.	-5.61868
;	-5.72161
▁���������,	-5.73678
▁��������.	-5.84954
��������	-5.8688
������,	-6.03511
���.	-6.1325
-	-6.13774
��.	-6.16379
.	-6.1856
����.	-6.23389
▁����������,	-6.30366
�.	-6.38697
▁���.	-6.39097
?	-6.41657
�����.	-6.50215
▁������������	-6.51528
▁���������.	-6.57156
�������,	-6.637
���������	-6.75547
▁�,	-6.82687
������.	-6.92195
▁���-��	-6.99096
▁de	-6.99587
s	-7.11616
▁����������.	-7.16199
▁�����������,	-7.26503
▁��.	-7.38416
��������,	-7.43255
�������.	-7.50642
▁?	-7.5983
▁la	-7.69171
e	-7.70638
▁l	-7.7357
▁�����-��	-7.75475
!	-7.7728
����������	-7.78904
▁(���	-7.86196
▁�����������.	-7.86317
▁d	-7.88019
▁vous	-7.94046
▁et	-7.94466
▁m	-7.95332
▁������������,	-7.96239
t	-7.98068
▁�������������	-7.99778
▁le	-8.06565
▁que	-8.07467
▁������!	-8.09593
▁�������:	-8.15612
▁les	-8.17076
▁(��	-8.20379
tre	-8.20919
-��	-8.22481
▁������:	-8.24442
��������.	-8.24914
est	-8.26795
.]��	-8.33047
���������,	-8.34744
▁�����!	-8.35274
▁�������?	-8.4134
▁�����?	-8.43268
▁je	-8.46134
▁qu	-8.46624
▁���?	-8.47321
▁pas	-8.50181
▁�������!	-8.52829
▁������?	-8.5359
▁���!	-8.54536
▁����!	-8.56437
▁����-��	-8.56721
il	-8.572
▁����?	-8.5902
▁��-��	-8.59232
re	-8.59748
▁�����:	-8.64942
▁a	-8.65912
▁ne	-8.66158
▁��������:	-8.6629
▁ma	-8.69946
▁(�	-8.70311
▁n	-8.70902
a	-8.70937
▁����.��	-8.7372
▁����:	-8.74215
r	-8.74215
▁un	-8.75657
▁ce	-8.75982
▁des	-8.76854
▁mon	-8.78372
▁s	-8.79634
▁c	-8.80059
n	-8.82784
▁��������?	-8.83481
▁������������.	-8.84143
▁�����-������	-8.84966
▁en	-8.8568
▁est	-8.86469
▁������?��	-8.88611
lle	-8.88814
on	-8.89904
me	-8.90581
▁���-��,	-8.9103
!��	-8.91912
,[	-8.93268
ez	-8.93435
▁qui	-8.95987
�?	-8.97798
▁du	-8.99036
▁�.��.	-9.01115
�����������	-9.01994
▁bien	-9.0346
▁vo	-9.04709
���:	-9.04962
ourienne	-9.06005
��:	-9.07457
▁pour	-9.08709
▁�������.��	-9.09015
ai	-9.09347
▁���-������	-9.09924
��!	-9.10874
��?	-9.11277
une	-9.13318
?��	-9.13342
▁���������:	-9.13915
▁���������?	-9.14674
���������.	-9.15115
����:	-9.15187
���?	-9.15713
▁tout	-9.15773
▁�����?��	-9.16107
���!	-9.16241
▁il	-9.163
▁���?��	-9.16398
es	-9.16863
▁������!��	-9.17127
▁me	-9.18654
▁(�����	-9.18898
Empereur	-9.20315
▁��������!	-9.20729
�-��	-9.20801
▁���-��.	-9.21989
ans	-9.22561
�!	-9.22868
.��	-9.2429
▁(����	-9.2445
▁���-����	-9.24994
▁Le	-9.25701
��-��	-9.25757
�.��	-9.27058
▁��������������	-9.2783
�:	-9.27939
▁��-���	-9.28179
er	-9.29628
▁�����.]	-9.29753
▁nous	-9.3001
▁�������������,	-9.30753
▁���:	-9.31213
:	-9.31369
▁������.��	-9.31546
▁comme	-9.31555
l	-9.33463
▁j	-9.34167
ce	-9.34697
▁plus	-9.34728
����?	-9.35365
▁au	-9.35623
����������,	-9.36831
▁����!��	-9.37399
����!	-9.37561
u	-9.37877
▁��������!��	-9.40078
�����:	-9.40097
3	-9.40509
en	-9.43267
▁���������!	-9.43647
▁r	-9.44246
▁����?��	-9.44595
▁Moscou	-9.44644
▁��?	-9.45073
▁I	-9.45267
▁��-������,	-9.46346
c	-9.47695
▁se	-9.47698
ire	-9.48159
▁���.]	-9.4874
2	-9.4992
vous	-9.50181
ais	-9.51705
1	-9.52274
ont	-9.52943
▁Vo	-9.55081
▁C	-9.55304
▁1812	-9.56875
i	-9.5719
▁Nicolas	-9.5739
▁(������	-9.57493
ne	-9.6047
��.��	-9.60828
Eh	-9.61643
4	-9.61878
▁�����!��	-9.61933
�?��	-9.62791
▁g	-9.63389
▁son	-9.64312
▁par	-9.64637
▁���-���	-9.64902
▁(	-9.65103
�����!	-9.65148
▁(���.).	-9.66403
▁lui	-9.66512
.[	-9.66762
un	-9.67421
▁��������?��	-9.67521
���-��	-9.67647
▁�����),	-9.67939
▁�.��.,	-9.6796
ait	-9.68529
0	-9.68585
�����?	-9.69922
▁M	-9.70823
▁����-��,	-9.7158
▁Il	-9.72262
▁�������!��	-9.72367
▁(�������	-9.72934
��?��	-9.74318
ant	-9.74466
▁����������:	-9.74993
��!��	-9.75325
▁������),	-9.76481
aux	-9.76571
▁cher	-9.76896
▁dan	-9.77082
8	-9.79279
������:	-9.79611
▁���������!��	-9.79687
▁����-������	-9.79755
▁p	-9.7988
6	-9.80031
te	-9.80683
)	-9.81094
▁������-��	-9.81901
▁pa	-9.8195
tes	-9.82094
▁suis	-9.82215
▁X	-9.82281
?[	-9.82319
ment	-9.8279
���!��	-9.83131
]��	-9.83188
9	-9.83434
▁������.]	-9.83536
),	-9.85367
▁��!	-9.85506
▁24	-9.85835
▁mes	-9.8601
▁A	-9.86458
���?��	-9.865
▁f	-9.86715
nt	-9.86762
▁grand	-9.87458
�!��	-9.87506
▁������)	-9.87714
▁(���.).]	-9.88142
▁12-�	-9.88276
!..	-9.88279
▁dit	-9.88343
▁pr	-9.88514
▁homme	-9.89118
▁moi	-9.89263
▁�������)	-9.90655
7	-9.91476
▁V	-9.92495
▁ch	-9.93772
▁v	-9.94125
5	-9.94131
▁�������?��	-9.94142
▁sa	-9.94174
▁on	-9.94211
▁000	-9.944
le	-9.95323
▁beau	-9.95592
ch	-9.95734
▁�������.]	-9.95784
ses	-9.97106
ons	-9.97218
▁��������.��	-9.9768
h	-9.98353
▁ave	-9.99128
▁L	-9.99448
▁�����.��	-10.0079
▁monsieur	-10.0101
▁sur	-10.0102
▁faire	-10.0113
����!��	-10.0152
▁Mais	-10.0261
��),	-10.0288
and	-10.0318
▁leur	-10.0323
▁N	-10.0329
▁Vou	-10.0371
���.��	-10.0493
▁1-��	-10.0616
�-������	-10.0621
aris	-10.0652
��-������	-10.0714
![	-10.0733
▁XIV	-10.0839
▁fait	-10.0845
▁����-��.	-10.0968
▁��������.]	-10.098
▁���������?��	-10.0997
it	-10.1003
gne	-10.1028
ens	-10.1155
ral	-10.1205
▁si	-10.1223
arm	-10.1307
ui	-10.1394
����������.	-10.1468
▁���!��	-10.1574
▁dites	-10.1589
▁mais	-10.1606
▁2-�	-10.1625
▁�������),	-10.1634
▁�����)	-10.1637
▁cet	-10.1675
▁III	-10.1685
▁XII	-10.1709
Vou	-10.1714
���),	-10.1773
▁���������),	-10.1831
Le	-10.1934
������?	-10.1936
���.]	-10.1939
����?��	-10.1972
,[1	-10.1984
▁fera	-10.2018
▁vie	-10.2073
������!	-10.2098
�),	-10.2101
ran	-10.213
▁XI	-10.22
A	-10.2216
▁������!]	-10.2221
-������	-10.2289
m	-10.2307
ous	-10.2315
▁vu	-10.2417
▁XVI	-10.2417
▁26-��	-10.2418
��.]	-10.2459
o	-10.2527
▁elle	-10.2541
C	-10.2659
ette	-10.2666
usse	-10.2718
����.��	-10.279
[	-10.2824
▁tr	-10.2835
is	-10.2881
Ah	-10.3065
ent	-10.3109
al	-10.3112
▁maman	-10.3327
▁jamais	-10.3327
▁nom	-10.3327
▁tous	-10.3328
▁IX	-10.3334
▁IV	-10.334
▁25-�	-10.3341
▁hommes	-10.3354
-��,	-10.3401
�����!��	-10.3424
VIII	-10.3527
▁Ma	-10.3557
▁ai	-10.358
ci	-10.3609
de	-10.3695
�������:	-10.3812
▁dire	-10.3814
▁2)	-10.3829
▁���?..	-10.3864
▁no	-10.3873
����.]	-10.3887
▁�������������.	-10.4047
▁dis	-10.4058
L	-10.4263
▁enfant	-10.4318
▁conna	-10.4326
▁XV	-10.4327
▁guerre	-10.4327
▁soldat	-10.4327
▁toujours	-10.4327
▁donc	-10.4327
▁mieux	-10.4328
▁fois	-10.4328
▁tante	-10.433
▁ami	-10.4407
▁�������!..	-10.4441
elle	-10.4443
▁1)	-10.4478
▁Vive	-10.4481
▁di	-10.4538
▁avez	-10.454
▁��������)	-10.4597
���)	-10.4645
������������	-10.4665
����),	-10.4696
▁����?]	-10.4757
eur	-10.4837
ti	-10.4845
us	-10.4859
���-������	-10.4909
ils	-10.4957
▁��-����������	-10.4976
ta	-10.505
�.]	-10.5274
aut	-10.5283
.]	-10.5307
▁�����).	-10.5329
▁mal	-10.5383
▁VII	-10.543
▁VI	-10.5432
▁fran	-10.5437
choss	-10.5438
▁Napol	-10.5438
▁cCur	-10.5438
▁celui	-10.5438
▁prince	-10.5438
ierre	-10.5441
▁deux	-10.5444
�����)	-10.5456
▁Et	-10.5478
▁1812-�	-10.5493
����)	-10.5501
▁���.��	-10.5531
▁������-������	-10.5543
▁��������!..	-10.5575
▁II	-10.5606
▁mot	-10.5612
ri	-10.565
▁��-����������.	-10.5802
�����������,	-10.5816
,[2	-10.5842
��)	-10.591
▁���-�	-10.5991
��!..	-10.6013
▁(��������	-10.6054
�����),	-10.6094
�����.]	-10.6128
▁�����!..	-10.6138
ordre	-10.6171
�����?��	-10.6181
▁����)	-10.6195
▁mo	-10.635
coup	-10.6385
����-��	-10.6413
avez	-10.6425
ieu	-10.6426
Mais	-10.6426
homme	-10.6461
▁15	-10.6496
eux	-10.6498
ra	-10.6522
▁No	-10.6587
�!..	-10.6602
▁encore	-10.6688
amour	-10.6688
▁savez	-10.669
▁garde	-10.6693
▁bons	-10.6694
avoir	-10.6696
▁XIX	-10.6709
▁XVIII	-10.671
▁rien	-10.6711
▁11-�	-10.6723
N	-10.6743
▁affaire	-10.6747
▁50	-10.6749
▁����-������,	-10.6798
▁��-������	-10.6798
I	-10.6815
▁ou	-10.6861
▁La	-10.6863
Vo	-10.6881
▁XX	-10.6889
▁�������-������	-10.6915
▁������).	-10.6924
�)	-10.7008
nter	-10.7052
▁���������.]	-10.7086
!�	-10.716
rit	-10.7181
j	-10.7191
▁o	-10.7239
▁�������-��	-10.7285
▁����.]	-10.7303
▁18	-10.7328
?..	-10.7333
▁����������!	-10.7391
▁���)	-10.7597
�����.��	-10.7627
▁re	-10.7766
�[	-10.7797
honneur	-10.7837
Il	-10.7872
d	-10.7884
▁������!..	-10.7891
▁10	-10.7905
������!��	-10.7975
ue	-10.8029
▁3)	-10.8051
ites	-10.8066
E	-10.8073
▁chose	-10.8108
▁vieux	-10.8117
▁russe	-10.8118
▁jours	-10.812
rite	-10.8122
▁7-�	-10.8143
▁tant	-10.8215
▁autres	-10.8309
gr	-10.8311
id	-10.8326
iens	-10.8333
▁bon	-10.834
▁grande	-10.8345
g	-10.8357
▁sauv	-10.8442
ement	-10.8457
▁������?..	-10.8569
rait	-10.8598
▁9	-10.8635
▁��-�������	-10.8702
ommes	-10.8707
�-��,	-10.8747
able	-10.8835
▁��������),	-10.8871
▁13-�	-10.896
moi	-10.9094
,[23	-10.9098
que	-10.9108
che	-10.9113
ol	-10.9148
ois	-10.9176
▁b	-10.9193
▁181	-10.924
je	-10.9265
x	-10.9273
ur	-10.9275
�������?	-10.9281
ve	-10.9348
▁��:	-10.9349
▁�����?]	-10.9352
[3	-10.9354
▁30	-10.9494
▁22	-10.9502
autre	-10.9507
puis	-10.9515
Vive	-10.9523
▁E	-10.9532
▁��?��	-10.9602
▁��-����������,	-10.9602
▁28	-10.961
▁ja	-10.9633
-�	-10.9715
mol	-10.9771
▁souverain	-10.9775
▁�������!�	-10.9777
▁capitale	-10.9783
▁colonel	-10.9783
▁corps	-10.9783
▁madame	-10.9783
▁sainte	-10.9784
▁XVII	-10.9784
▁ville	-10.9784
▁cela	-10.9784
uel	-10.9785
▁peut	-10.9786
rance	-10.9786
▁monde	-10.9787
trop	-10.9789
▁jusqu	-10.9791
el	-10.98
▁temps	-10.9814
▁vois	-10.9824
▁diable	-10.9847
v	-10.9858
▁3-�	-10.9904
ie	-10.9944
▁Au	-10.9965
▁entre	-10.997
ff	-10.9997
aurai	-11.0025
,[11	-11.008
������)	-11.009
▁pro	-11.0094
▁3	-11.0109
▁���������)	-11.014
▁1	-11.018
▁8	-11.0215
as	-11.023
�������!	-11.026
be	-11.0265
Comme	-11.0281
▁XXI	-11.0436
▁�!	-11.0456
▁��!��	-11.048
▁����������),	-11.0484
▁mis	-11.0488
pe	-11.051
eut	-11.0534
▁����!]	-11.055
▁donn	-11.0559
ler	-11.0573
▁veu	-11.0653
▁13-	-11.0712
.[1	-11.0715
������),	-11.0736
���.)	-11.077
tion	-11.0776
▁�����������.]	-11.0836
����-������	-11.0838
ndr	-11.0934
▁toute	-11.094
▁da	-11.0943
,[3	-11.0991
������.]	-11.1006
▁180	-11.1023
▁so	-11.1063
���!..	-11.1065
age	-11.1127
▁t	-11.1128
▁�������-�������	-11.119
▁��-����,	-11.1202
▁����),	-11.1229
▁serai	-11.1265
▁demande	-11.1285
▁all	-11.133
▁reste	-11.1363
▁��������?]	-11.1375
ilez	-11.1382
st	-11.1398
▁gr	-11.1398
La	-11.14
▁plu	-11.1472
res	-11.1525
les	-11.1526
autres	-11.1526
▁���������������	-11.1576
▁ces	-11.1579
▁�����-�	-11.1585
▁29	-11.1598
ar	-11.1614
▁quel	-11.1654
��-��,	-11.1676
ables	-11.1711
pes	-11.1719
III	-11.173
roi	-11.1735
▁sou	-11.1751
▁ge	-11.1756
▁pu	-11.1756
▁�������!]	-11.1769
▁die	-11.1772
▁peuple	-11.1776
▁ridicule	-11.1783
eausset	-11.1783
esuhof	-11.1783
unft	-11.1783
▁publique	-11.1783
angine	-11.1783
▁messieurs	-11.1783
▁parole	-11.1783
▁140	-11.1783
▁partout	-11.1783
▁quelque	-11.1783
Monseigneur	-11.1784
▁100	-11.1784
▁faut	-11.1784
▁fut	-11.1784
▁donner	-11.1785
▁dois	-11.1789
▁������!�	-11.1789
▁dernier	-11.1793
usses	-11.1802
▁non	-11.1803
▁femme	-11.1812
tat	-11.1828
▁ici	-11.1836
▁bataille	-11.187
▁nation	-11.187
▁pass	-11.1872
uvr	-11.189
.[3	-11.1894
▁sacr	-11.193
�.[	-11.196
rie	-11.1966
aj	-11.202
▁����������?	-11.2024
ance	-11.2034
▁sais	-11.2064
▁puis	-11.2121
!..��	-11.2131
▁tra	-11.2187
lent	-11.2193
M	-11.2214
,[15	-11.2237
ation	-11.2249
▁�������-�����	-11.2354
▁Ah	-11.2424
▁XXXI	-11.2481
������?��	-11.2512
in	-11.2538
cin	-11.2544
▁En	-11.2599
ts	-11.2637
ner	-11.2692
▁4	-11.2713
▁Ce	-11.2736
▁6-�	-11.2746
������.��	-11.2783
▁in	-11.2867
,[4	-11.2873
oit	-11.2947
▁parle	-11.2947
z	-11.2956
▁�����!�	-11.3007
▁te	-11.3022
II	-11.3082
▁e	-11.3102
,[18	-11.3152
ins	-11.3188
aise	-11.323
ich	-11.3293
p	-11.3325
▁���������?]	-11.3332
▁5	-11.3348
iers	-11.3453
�.)	-11.3546
▁vol	-11.3569
▁����!�	-11.3709
▁��-�	-11.3739
▁car	-11.3832
oi	-11.3841
cu	-11.3846
�����������.	-11.3874
?[26	-11.3881
?!	-11.3941
▁alte	-11.3943
▁dra	-11.3963
▁11	-11.3969
��������:	-11.3984
▁cas	-11.399
Mon	-11.4009
out	-11.4014
des	-11.4019
▁����-����	-11.4034
▁31	-11.4034
sire	-11.4046
venir	-11.4061
▁��-������.	-11.4085
▁����?..	-11.4088
quelle	-11.4094
?[2	-11.4158
fit	-11.4163
▁32	-11.4183
▁ni	-11.4202
▁ba	-11.423
▁mar	-11.4236
▁i	-11.4247
▁(���.)	-11.4258
[35	-11.4261
lato	-11.4267
▁���.��.	-11.427
▁1807	-11.4274
▁jour	-11.4277
▁petit	-11.4278
▁arr	-11.4282
abvier	-11.4283
empereur	-11.4283
issement	-11.4283
▁Naples	-11.4283
▁capitaine	-11.4283
▁chemin	-11.4283
▁flammes	-11.4283
▁officier	-11.4283
▁patrie	-11.4283
▁marschiert	-11.4283
ublime	-11.4283
▁aussi	-11.4283
▁redoute	-11.4283
▁point	-11.4283
▁assez	-11.4283
▁tard	-11.4283
▁chair	-11.4283
▁cousin	-11.4283
▁conseil	-11.4283
▁peine	-11.4283
▁vive	-11.4283
▁400	-11.4284
▁Marie	-11.4284
▁comte	-11.4284
▁Mos	-11.4284
▁marcher	-11.4284
aum	-11.4284
iril	-11.4284
▁ennemis	-11.4284
▁moins	-11.4285
▁doute	-11.4285
▁trou	-11.4285
▁(���.)]	-11.4285
▁quoi	-11.4286
▁savoir	-11.4287
ome	-11.4288
Colon	-11.4289
rand	-11.429
▁1805-�	-11.4291
▁peuples	-11.4293
▁voit	-11.4295
▁Elle	-11.4295
▁sentiment	-11.43
chal	-11.4306
▁666-��	-11.431
▁route	-11.4313
▁canon	-11.4317
▁camp	-11.4318
are	-11.4327
▁Alexandre	-11.4331
▁int	-11.4335
▁cl	-11.4336
▁bonne	-11.4337
▁fille	-11.4353
▁5-�	-11.4354
sent	-11.4356
▁peu	-11.4357
��.)	-11.4359
,[10	-11.4363
apr	-11.4369
▁����-�����	-11.4369
▁tir	-11.4371
▁lo	-11.4374
�?..	-11.4375
��-����	-11.4377
contre	-11.4389
rent	-11.4393
▁mani	-11.4404
▁Monsieur	-11.441
▁aime	-11.4415
▁na	-11.4446
▁avait	-11.4447
▁tu	-11.4474
�-����	-11.4483
icht	-11.4509
��-�������	-11.4528
▁Mon	-11.4573
���).	-11.4588
ult	-11.4592
ard	-11.467
▁XXII	-11.4724
▁��!..	-11.4727
;[	-11.4737
▁autre	-11.4742
▁compt	-11.4747
rez	-11.4759
aient	-11.4776
▁nouveau	-11.4796
�-������,	-11.4808
▁fr	-11.4832
app	-11.4844
▁rester	-11.4853
▁vers	-11.4955
▁celle	-11.4967
▁coup	-11.4978
▁commence	-11.498
ante	-11.5021
▁�����?..	-11.5021
▁�������).	-11.5106
-������,	-11.5123
▁1-�	-11.5136
]	-11.5163
!�[	-11.5168
��?..	-11.5183
-�,	-11.5187
▁brave	-11.5227
▁������.)	-11.5243
ac	-11.5264
f	-11.5275
69	-11.5283
elles	-11.5305
�����-��	-11.5314
▁pl	-11.5341
�-���	-11.5356
▁h	-11.5387
ion	-11.5399
▁laiss	-11.5403
��).	-11.5447
����).	-11.5454
V	-11.546
▁�����-��,	-11.5465
![40	-11.5527
����-�������	-11.5575
�,[21	-11.5643
▁aurai	-11.5665
▁4-��	-11.5674
�������!��	-11.572
▁�����-�������	-11.5755
�-�������	-11.5781
der	-11.5809
�������),	-11.5844
au	-11.5873
����!..	-11.5953
,[39	-11.5967
▁��-�����	-11.602
88	-11.6024
,[20	-11.6032
▁���-������,	-11.6069
euse	-11.6099
▁��������������,	-11.6103
vez	-11.6131
��-������,	-11.614
▁con	-11.6169
ine	-11.6188
▁su	-11.6203
ments	-11.6304
.[27	-11.6353
��!]	-11.6356
���-�������	-11.6412
���!]	-11.6415
▁XXX	-11.6419
os	-11.644
pr	-11.6446
apport	-11.6457
96	-11.6462
▁fil	-11.6475
No	-11.6523
▁1)����	-11.6523
,[43	-11.6559
▁ro	-11.6588
▁����).	-11.6662
,[29	-11.667
-����	-11.6681
�������.]	-11.6689
95	-11.6701
���?..	-11.6777
��-�����	-11.6804
���-��,	-11.6806
gner	-11.6822
ien	-11.683
▁�.	-11.6863
▁parl	-11.6865
�,[	-11.6959
).	-11.6984
ert	-11.6994
▁compte	-11.7018
ein	-11.704
▁�?..	-11.7059
▁ex	-11.7107
97	-11.7108
?[32	-11.7139
�����-�������	-11.7143
��?]	-11.7155
▁(���������	-11.7159
▁san	-11.7206
����!]	-11.7206
▁(����.)	-11.7214
ennemi	-11.7222
▁vrai	-11.7271
�������)	-11.7271
chez	-11.7306
Allez	-11.7325
tant	-11.7346
Nicolas	-11.7347
▁duc	-11.736
▁dr	-11.7369
off	-11.737
la	-11.7372
Ma	-11.7402
[31	-11.7427
▁13	-11.7443
?[1	-11.7505
�[3	-11.7522
▁va	-11.7532
▁40	-11.7533
.[2	-11.7574
-���	-11.7605
▁1805	-11.7606
lor	-11.7608
▁im	-11.7611
ussie	-11.7612
appel	-11.7613
erste	-11.7614
▁verleg	-11.7616
Ideville	-11.7616
amball	-11.7616
ctobre	-11.7616
onjour	-11.7616
oublie	-11.7616
tranger	-11.7616
▁Allemand	-11.7616
▁caustique	-11.7616
▁champ	-11.7616
▁compagnie	-11.7616
▁contraire	-11.7616
▁cosaque	-11.7616
▁courtisan	-11.7616
▁distribu	-11.7616
▁fourni	-11.7616
▁ganz	-11.7616
▁habitants	-11.7616
▁inform	-11.7616
▁intime	-11.7616
▁tristes	-11.7616
▁Vincent	-11.7616
▁sub	-11.7616
▁ainsi	-11.7616
▁compris	-11.7616
▁vivre	-11.7616
estime	-11.7616
patriot	-11.7616
pend	-11.7616
▁glo	-11.7616
chaud	-11.7616
▁recev	-11.7616
▁terrible	-11.7616
obert	-11.7616
▁comtesse	-11.7616
▁malheureux	-11.7616
▁revoir	-11.7617
▁1789	-11.7617
▁service	-11.7617
erden	-11.7617
▁1811-�	-11.7617
▁1820	-11.7617
▁raison	-11.7617
▁manger	-11.7617
pousez	-11.7617
ritable	-11.7617
errn	-11.7617
heure	-11.7617
▁boire	-11.7617
▁chance	-11.7617
▁lettre	-11.7617
▁descendre	-11.7617
tif	-11.7617
▁rem	-11.7618
▁oh	-11.7618
▁ferme	-11.7619
▁prie	-11.7619
▁crois	-11.762
▁propos	-11.762
sist	-11.7621
▁connais	-11.7621
our	-11.7622
▁devoir	-11.7622
▁maison	-11.7624
▁honneurs	-11.7625
lais	-11.7625
uelle	-11.7625
▁faites	-11.7625
▁pur	-11.7626
rents	-11.7628
cun	-11.7628
▁femmes	-11.763
▁86-	-11.7631
tres	-11.7631
ards	-11.7631
▁amie	-11.7634
▁lieu	-11.7634
▁charmant	-11.7635
▁amis	-11.7644
▁vin	-11.7647
▁actuelle	-11.765
▁jeune	-11.7651
▁�������?]	-11.7652
▁sch	-11.7652
▁passe	-11.7653
▁incendi	-11.7657
▁fond	-11.766
94	-11.7666
55	-11.7673
▁barb	-11.7685
▁feu	-11.7686
▁chevalier	-11.7686
▁entrez	-11.7687
▁prouver	-11.7692
▁forte	-11.7702
▁��-����������?	-11.7706
▁appr	-11.771
▁16	-11.7715
avait	-11.7789
uite	-11.7793
▁fi	-11.7796
▁ah	-11.7797
▁entend	-11.7813
▁zu	-11.7829
mains	-11.7842
▁eu	-11.7845
▁2	-11.7859
▁����������.]	-11.7864
ser	-11.7865
▁off	-11.7871
81	-11.7888
▁ancien	-11.7889
rois	-11.7892
▁Allez	-11.7916
▁compren	-11.794
�����-������	-11.7945
89	-11.7951
▁lim	-11.7986
eau	-11.7998
▁quart	-11.8019
▁sire	-11.806
▁perd	-11.8064
.[38	-11.8065
▁trouv	-11.8086
▁cent	-11.8097
esp	-11.8113
�-�����	-11.812
56	-11.8139
attend	-11.8159
.[24	-11.8186
▁�����������:	-11.8191
entend	-11.8193
.[42	-11.8228
ns	-11.8232
58	-11.825
audra	-11.8269
▁com	-11.8281
▁�����-��!	-11.8308
160	-11.8309
[5	-11.8316
▁honneur	-11.8365
75	-11.8376
▁z	-11.8378
���-�����	-11.8378
oci	-11.8405
�����).	-11.8488
▁signe	-11.8502
45	-11.8507
qui	-11.8535
�[25	-11.8543
envo	-11.8565
���?]	-11.8566
?..[	-11.857
ux	-11.8624
�).	-11.8641
�!]	-11.8656
▁������-�������	-11.8674
-��!��	-11.8688
ign	-11.871
▁�����.)	-11.8714
dement	-11.872
▁abs	-11.8736
Charm	-11.8779
rai	-11.878
▁pill	-11.8782
na	-11.8805
ade	-11.8805
▁�����-����	-11.8812
arisien	-11.8829
▁mort	-11.8848
tique	-11.8863
art	-11.8893
di	-11.8911
Ce	-11.8915
.[8	-11.8917
tu	-11.897
tte	-11.8994
57	-11.902
�?]	-11.9026
,[19	-11.9033
▁pens	-11.9049
qu	-11.9055
-�������	-11.9064
▁7	-11.915
ma	-11.9191
��-���	-11.92
sor	-11.9209
▁XXXII	-11.9221
�.[36	-11.9244
���-����	-11.9245
ille	-11.9276
[4	-11.9288
��������?	-11.9292
or	-11.9309
erai	-11.9372
▁cons	-11.9373
�[14	-11.9397
71	-11.9424
▁co	-11.944
rant	-11.9459
jet	-11.9486
![12	-11.9494
ieux	-11.9529
▁������������:	-11.9548
cit	-11.9548
▁part	-11.9589
▁quitt	-11.9595
▁����-�	-11.9609
68	-11.965
ions	-11.9682
![29	-11.9751
����?..	-11.9753
vais	-11.9774
▁�����-������.	-11.9809
▁������-����	-11.9811
83	-11.9831
▁asi	-11.986
▁mi	-11.9868
oui	-11.9872
igne	-11.9874
ton	-11.9902
tai	-11.9919
��-��������	-11.9987
�[37	-12.0003
![2	-12.0011
����?]	-12.0013
anqu	-12.0078
▁����-����-����	-12.0091
sse	-12.0109
rs	-12.0168
����-��������	-12.0183
52	-12.0193
.[13	-12.0216
roc	-12.0237
����.)	-12.0249
q	-12.0292
lez	-12.0297
nombr	-12.0309
▁den	-12.0315
![30	-12.0365
?[39	-12.0373
![3	-12.0375
?[28	-12.0379
▁pouv	-12.0393
������������,	-12.04
▁fer	-12.0427
▁������-��?	-12.0483
▁�������-��?	-12.0526
uis	-12.0527
▁fus	-12.0578
asser	-12.0596
28	-12.0628
▁combi	-12.063
▁cro	-12.0642
84	-12.0649
.[10	-12.0729
�,[7	-12.0759
imp	-12.0775
enez	-12.0796
▁fais	-12.081
,[16	-12.0815
79	-12.0883
����-�����	-12.0884
dit	-12.0895
▁���������!..	-12.0927
![27	-12.1004
bine	-12.1015
▁XXVII	-12.1074
��������!	-12.1112
29	-12.1153
sence	-12.1185
▁commenc	-12.1192
▁�����!]	-12.1215
�����!]	-12.1265
�-�	-12.1287
ut	-12.1291
et	-12.1346
▁17	-12.1367
87	-12.1371
65	-12.1382
,[14	-12.1415
pt	-12.1429
▁����������.��	-12.1469
-�����	-12.1487
▁XXVI	-12.1494
78	-12.1506
?[13	-12.1523
▁sera	-12.1531
arlez	-12.1559
▁av	-12.1568
op	-12.1575
▁voi	-12.1577
▁vien	-12.1623
▁��?]	-12.1633
74	-12.1642
▁consi	-12.1649
![34	-12.1651
ang	-12.166
▁XXV	-12.1671
ique	-12.1672
▁gen	-12.1678
▁li	-12.1696
am	-12.1717
���-��������	-12.1734
▁2)����	-12.1764
▁�������]	-12.1767
all	-12.18
▁bo	-12.182
▁�����-�����	-12.1851
Au	-12.1912
▁reti	-12.1915
bourg	-12.1917
�����-��������	-12.1932
oute	-12.1932
▁regard	-12.1932
lut	-12.1951
nie	-12.1953
�������.��	-12.1967
nent	-12.198
▁quar	-12.2017
fen	-12.2065
.[9	-12.21
ug	-12.2118
.[36	-12.2125
ge	-12.2172
main	-12.22
eu	-12.22
▁pla	-12.223
85	-12.2236
������-�������	-12.2243
77	-12.2255
latent	-12.2272
En	-12.2295
ann	-12.2302
,[22	-12.2327
Monsieur	-12.2334
int	-12.2336
avo	-12.2336
ages	-12.2345
affaire	-12.2346
000	-12.2347
fait	-12.2351
aime	-12.2368
cher	-12.2385
eusse	-12.2399
▁42	-12.2416
quel	-12.2421
▁3)����	-12.2429
��-�	-12.2433
▁12	-12.2461
▁arriv	-12.247
▁Va	-12.2479
▁20	-12.2483
▁fa	-12.2505
sile	-12.2528
▁ven	-12.2544
ces	-12.2556
▁26	-12.2556
▁666	-12.2557
sp	-12.2557
▁25	-12.2565
ec	-12.2578
cour	-12.2592
▁Cosaque	-12.2608
orte	-12.2608
▁nouvelle	-12.2608
tions	-12.261
▁foi	-12.2611
teppes	-12.2614
aires	-12.2616
outouzo	-12.2616
nergique	-12.2616
▁blonde	-12.2616
▁longue	-12.2616
▁Vistule	-12.2616
▁admirateur	-12.2616
▁oblig	-12.2616
▁premi	-12.2616
▁tranquilli	-12.2616
Capitaine	-12.2616
Empire	-12.2616
Europe	-12.2616
Maman	-12.2616
abandon	-12.2616
agression	-12.2616
alliance	-12.2616
astopchine	-12.2616
compens	-12.2616
eschichte	-12.2616
essales	-12.2616
instruction	-12.2616
organis	-12.2616
▁Morel	-12.2616
▁Varsovie	-12.2616
▁bouteille	-12.2616
▁certain	-12.2616
▁chagrin	-12.2616
▁chauffe	-12.2616
▁cochon	-12.2616
▁conscience	-12.2616
▁craindre	-12.2616
▁dangereux	-12.2616
▁fortune	-12.2616
▁habile	-12.2616
▁humain	-12.2616
▁imagin	-12.2616
▁impossible	-12.2616
▁intelligent	-12.2616
▁longtemps	-12.2616
▁militaire	-12.2616
▁pectorale	-12.2616
▁possible	-12.2616
▁proclam	-12.2616
▁prompt	-12.2616
▁recommencer	-12.2616
▁refus	-12.2616
▁superbe	-12.2616
▁tranquille	-12.2616
▁tromper	-12.2616
▁vaincu	-12.2616
▁veniel	-12.2616
▁victime	-12.2616
▁question	-12.2616
ifique	-12.2616
▁prisonnier	-12.2616
▁providence	-12.2616
▁retirer	-12.2616
▁victo	-12.2616
coutez	-12.2616
remlin	-12.2616
▁Czars	-12.2616
▁fatigu	-12.2616
▁gentil	-12.2616
ressant	-12.2616
▁personne	-12.2616
▁moutard	-12.2616
giments	-12.2616
▁compos	-12.2616
▁mauvais	-12.2616
oreille	-12.2616
aporal	-12.2616
▁cause	-12.2616
▁permette	-12.2617
▁bonsoir	-12.2617
oulev	-12.2617
▁gagn	-12.2617
outouzoff	-12.2617
▁propre	-12.2617
▁visite	-12.2617
molir	-12.2617
▁mortel	-12.2617
▁continuent	-12.2617
▁diese	-12.2617
ird	-12.2617
▁atta	-12.2617
▁����-��-��-���	-12.2617
▁populace	-12.2617
Colonel	-12.2617
▁empire	-12.2617
▁courte	-12.2617
talien	-12.2617
ature	-12.2617
▁souff	-12.2617
esouhof	-12.2617
osse	-12.2617
ratrice	-12.2617
prime	-12.2617
▁enfin	-12.2617
▁gros	-12.2617
▁trouvait	-12.2617
▁120	-12.2617
▁vraiment	-12.2617
mence	-12.2617
▁quatre	-12.2617
▁fou	-12.2618
rieuse	-12.2618
▁eff	-12.2618
▁130	-12.2618
▁repos	-12.2618
▁bois	-12.2618
semble	-12.2618
esque	-12.2618
▁faisait	-12.2618
aigle	-12.2618
▁mainten	-12.2618
▁partie	-12.2618
brigand	-12.2618
▁110	-12.2618
▁retour	-12.2618
Espagne	-12.2618
▁steppes	-12.2618
poign	-12.2619
▁six	-12.2619
▁genre	-12.2619
rieur	-12.2619
avaient	-12.2619
clair	-12.2619
glises	-12.262
▁sacrifices	-12.262
inter	-12.262
rard	-12.262
▁malheurs	-12.262
▁150	-12.262
▁belles	-12.262
▁portes	-12.262
Adieu	-12.262
ger	-12.2621
▁opini	-12.2621
hors	-12.2621
▁armes	-12.2621
▁rappel	-12.2622
▁pos	-12.2622
▁sein	-12.2623
tises	-12.2623
▁peur	-12.2624
rables	-12.2624
▁const	-12.2624
▁cap	-12.2625
▁Cosaques	-12.2625
▁nouvelles	-12.2625
Asile	-12.2625
▁lieux	-12.2627
▁soit	-12.2627
▁��-����������?]	-12.2628
▁sup	-12.2628
▁petite	-12.2629
uant	-12.2629
▁demain	-12.263
ouvrir	-12.263
▁trouve	-12.2633
ntrez	-12.2633
▁fils	-12.2633
artic	-12.2634
acte	-12.2634
eine	-12.2635
mener	-12.2635
▁coups	-12.2635
▁camps	-12.2638
▁craint	-12.2638
257	-12.2638
lors	-12.2641
▁21	-12.2642
lis	-12.2643
▁9���������.	-12.2646
404	-12.2646
▁souverains	-12.2647
▁14-�	-12.2648
Cour	-12.2649
air	-12.265
▁choses	-12.2653
▁balle	-12.2653
▁besoin	-12.2657
aites	-12.2662
▁place	-12.2663
▁�������!..]	-12.2663
▁rends	-12.2667
▁enfants	-12.2669
▁gre	-12.2672
▁������?]	-12.2674
▁35	-12.2681
bar	-12.2687
159	-12.269
▁puissant	-12.2695
appren	-12.2698
comm	-12.27
▁gar	-12.2712
219	-12.2719
▁bar	-12.272
▁riz	-12.2725
corde	-12.2735
izi	-12.2735
▁chef	-12.2739
▁dames	-12.2739
▁exige	-12.2739
▁galant	-12.2739
▁allemand	-12.274
▁fini	-12.274
▁bless	-12.2743
▁fin	-12.2744
▁70	-12.2745
▁1807-�	-12.2747
▁��������]	-12.2747
411	-12.2749
▁sour	-12.2754
▁�-�-��!	-12.2754
▁��������.)	-12.2758
▁avant	-12.2759
98	-12.276
grand	-12.2765
�������������	-12.2768
arrive	-12.2768
vite	-12.2773
▁voul	-12.2776
tiers	-12.2776
▁bi	-12.2783
▁livr	-12.2788
apa	-12.2793
▁90	-12.2796
172	-12.2811
282	-12.2812
!..[33	-12.2822
▁exce	-12.2824
tout	-12.2832
▁battre	-12.2834
▁62	-12.2836
▁toi	-12.2837
▁(�����.).	-12.2839
▁99	-12.2842
▁20-��	-12.2848
▁ru	-12.2854
▁9-�	-12.286
50	-12.2862
193	-12.2875
▁euss	-12.2882
uss	-12.2903
entret	-12.2903
▁60	-12.2903
conqu	-12.2909
mi	-12.291
�����!..	-12.2912
▁per	-12.2922
dmirable	-12.2922
����.])	-12.2926
63	-12.2926
gage	-12.2931
▁ann	-12.2942
▁combat	-12.2948
▁voir	-12.2949
mont	-12.2952
▁����-������!��	-12.2955
▁venu	-12.2955
?[24	-12.2968
▁esp	-12.2973
chine	-12.2981
irai	-12.2983
▁malad	-12.2987
▁band	-12.2992
▁80	-12.2998
▁ext	-12.2999
�-��������	-12.3011
59	-12.3018
Mo	-12.3019
▁famil	-12.302
▁propo	-12.3028
org	-12.303
content	-12.3047
54	-12.3053
82	-12.3055
,[40	-12.3063
▁divi	-12.3076
▁��),	-12.3078
8-�	-12.3117
go	-12.3121
▁����.)	-12.3123
▁hui	-12.3156
▁ac	-12.3161
▁cad	-12.3213
▁venir	-12.3229
ds	-12.3245
?,[	-12.325
sait	-12.3259
erc	-12.3267
301	-12.3267
achez	-12.3306
47	-12.3312
▁sabr	-12.3317
Comte	-12.3356
�������?��	-12.336
▁hon	-12.3381
61	-12.3389
rente	-12.3393
▁commun	-12.3403
▁1808	-12.3405
▁pi	-12.342
73	-12.3422
▁post	-12.3423
onde	-12.3438
��������),	-12.3486
▁plaint	-12.3495
▁cour	-12.3497
ter	-12.3508
40	-12.3524
39	-12.3526
▁force	-12.353
ltesse	-12.3533
ah	-12.3557
▁der	-12.3558
▁��������?..	-12.3564
▁����!���	-12.3572
voir	-12.3579
.[35	-12.3586
▁67	-12.3595
���-�	-12.36
av	-12.3629
amit	-12.3636
cla	-12.3654
▁���-��?	-12.3655
103	-12.3674
▁voudrai	-12.3681
09	-12.3687
?�[3	-12.3713
▁res	-12.3717
mettr	-12.3729
▁rend	-12.3737
bra	-12.3738
189	-12.3779
ili	-12.38
pp	-12.3801
sion	-12.3851
48	-12.3855
354	-12.3884
190	-12.3896
[17	-12.3897
�?[4	-12.3899
tale	-12.3915
▁laisser	-12.3941
fens	-12.3996
Lan	-12.4
▁���!�	-12.4038
▁entr	-12.405
ati	-12.4064
▁ass	-12.4094
duite	-12.4103
▁179	-12.4117
chons	-12.4118
ro	-12.4183
rou	-12.4198
▁tro	-12.42
��!�	-12.4202
vant	-12.4213
421	-12.4235
372	-12.4238
pous	-12.4249
gi	-12.4254
[30	-12.4314
208	-12.4321
360	-12.4409
[1	-12.4418
▁6	-12.4429
53	-12.4444
▁����!..	-12.4446
�.[16	-12.4499
49	-12.4503
25	-12.4508
280	-12.4525
serve	-12.4569
72	-12.457
ing	-12.4576
iser	-12.4579
embourgeois	-12.4588
199	-12.4598
once	-12.4612
b	-12.4614
fin	-12.4648
rag	-12.4648
▁marche	-12.4657
empl	-12.4667
vers	-12.469
436	-12.4716
amb	-12.4725
143	-12.4749
����-���������	-12.4767
▁30-�	-12.477
▁seule	-12.4771
�.[9	-12.4772
min	-12.4772
assa	-12.4774
434	-12.479
mm	-12.4802
▁franche	-12.4811
▁bonh	-12.4818
va	-12.4828
ir	-12.4837
apporte	-12.4848
86	-12.4857
46	-12.4872
▁�?	-12.4876
gent	-12.4885
▁��-����	-12.4895
64	-12.4897
▁�������?..	-12.4911
221	-12.4956
�����-�����	-12.4959
��������.]	-12.4995
▁gra	-12.5017
▁ois	-12.5046
[44	-12.5055
76	-12.5089
440	-12.5093
���!�	-12.5103
▁inv	-12.5107
��-���������	-12.5119
187	-12.5128
▁cr	-12.5133
▁arm	-12.5154
119	-12.5165
80	-12.5167
▁fusil	-12.519
27	-12.5202
▁riv	-12.5213
.[20	-12.5238
211	-12.524
ieurs	-12.5243
429	-12.5265
ument	-12.5277
35	-12.5282
ier	-12.5294
▁�������-��,	-12.5302
avi	-12.5309
286	-12.5312
������!]	-12.5374
157	-12.5404
▁consen	-12.5404
uit	-12.5442
207	-12.5447
�����-���������	-12.5457
nu	-12.546
305	-12.546
�[42	-12.5465
▁ap	-12.5478
�.[41	-12.5492
▁soi	-12.5514
▁��?..	-12.5524
ist	-12.5567
ienne	-12.5567
XIX	-12.5572
![26	-12.5575
se	-12.5576
�����.)	-12.558
296	-12.5582
mbre	-12.5597
▁indisp	-12.561
.[37	-12.5629
ence	-12.5653
▁�����������?	-12.5656
350	-12.5673
66	-12.5689
156	-12.5708
175	-12.5708
▁rou	-12.5742
.[43	-12.5759
267	-12.576
rer	-12.5785
!]	-12.5786
▁cui	-12.5799
245	-12.5804
427	-12.5806
379	-12.5874
��������!��	-12.5897
92	-12.5954
acr	-12.5967
344	-12.5967
!..[	-12.5981
ive	-12.6
▁carr	-12.6012
▁marcha	-12.6013
emandez	-12.6021
▁����-���	-12.6037
�[20	-12.6055
247	-12.6067
ros	-12.6086
eraient	-12.6087
ici	-12.6087
412	-12.6089
420	-12.6101
?]	-12.6121
▁fac	-12.6149
223	-12.6168
ot	-12.6171
,[24	-12.6196
18	-12.6201
▁direct	-12.6202
395	-12.6206
303	-12.6208
cier	-12.6217
419	-12.6241
308	-12.6242
�[9	-12.6284
�����?]	-12.6307
▁pap	-12.6312
��-����������	-12.6315
▁malheur	-12.6317
278	-12.6317
311	-12.6321
to	-12.6339
304	-12.6363
▁dirai	-12.6367
▁��������������.	-12.6368
▁����-����-���	-12.6385
,[31	-12.6388
347	-12.6391
336	-12.6394
222	-12.6395
10	-12.6417
rat	-12.6434
▁�����������!	-12.6437
424	-12.6445
[7	-12.6455
51	-12.6479
406	-12.6484
ontra	-12.6487
�����?..	-12.6517
126	-12.6528
229	-12.6556
13	-12.6586
!�[4	-12.6593
▁��������-��	-12.6601
337	-12.6628
91	-12.6636
178	-12.6645
uti	-12.6668
376	-12.6672
▁note	-12.6677
parte	-12.669
235	-12.6698
▁vot	-12.6735
▁Cet	-12.674
67	-12.6741
128	-12.6741
����-��������,	-12.676
377	-12.6762
155	-12.6771
ections	-12.6774
▁man	-12.6796
aissez	-12.68
387	-12.6807
17	-12.6809
109	-12.6882
62	-12.6895
▁quitte	-12.6912
trait	-12.6916
.[25	-12.692
�,[19	-12.6932
�[17	-12.6953
▁���������?..	-12.6967
��-��.	-12.6982
isch	-12.6991
ru	-12.6997
287	-12.6998
216	-12.7004
▁demand	-12.7035
405	-12.7045
��-��������,	-12.7122
-��-��-��!..	-12.7131
ind	-12.7135
▁��-��?	-12.7143
125	-12.7168
aille	-12.7191
435	-12.7199
123	-12.7207
avant	-12.7216
▁po	-12.7227
184	-12.7228
309	-12.7231
���-���������	-12.7232
▁demander	-12.7248
6-��	-12.725
340	-12.726
269	-12.7269
374	-12.7282
�]��	-12.7297
375	-12.7323
,[5	-12.7391
������-��������	-12.741
259	-12.741
316	-12.7417
�.[8	-12.7418
217	-12.7434
93	-12.7438
127	-12.7462
389	-12.7477
▁ver	-12.7477
260	-12.748
[36	-12.7518
409	-12.7529
▁4-�	-12.7532
342	-12.7555
310	-12.7569
�-����������	-12.7578
414	-12.7586
▁verr	-12.761
438	-12.7657
▁ca	-12.7661
288	-12.7663
413	-12.7668
arra	-12.7676
▁ret	-12.7683
254	-12.7702
346	-12.7718
chi	-12.7727
������-���������	-12.7758
324	-12.7763
onnez	-12.7768
���-��������,	-12.7781
���-���	-12.7792
418	-12.7818
����-����	-12.782
hr	-12.7834
256	-12.7838
�-���������	-12.7848
-������?	-12.7859
383	-12.7865
▁loi	-12.7898
um	-12.7905
tionn	-12.7907
Et	-12.7914
15	-12.7927
cul	-12.793
▁demandera	-12.7934
36	-12.7941
������).	-12.7947
177	-12.7949
[14	-12.7951
▁5�������	-12.7955
23	-12.8015
396	-12.8021
173	-12.8053
401	-12.8071
284	-12.8072
132	-12.8073
ona	-12.8086
325	-12.8091
380	-12.8129
emp	-12.8133
ix	-12.8133
▁(����������	-12.8159
277	-12.819
,[21	-12.8194
129	-12.8203
220	-12.8206
213	-12.8207
ition	-12.8212
rang	-12.8214
XIV	-12.8223
357	-12.8244
24	-12.8251
�-��.	-12.8253
417	-12.8273
▁����������)	-12.8274
�!�	-12.8286
![1	-12.8291
-��������	-12.8296
[41	-12.8297
174	-12.8306
106	-12.8309
332	-12.8314
erl	-12.8316
chen	-12.8326
318	-12.8336
339	-12.8345
341	-12.836
��������)	-12.8363
263	-12.8387
124	-12.8392
.[32	-12.8392
▁����������?]	-12.8392
437	-12.8419
275	-12.8423
312	-12.8465
▁franch	-12.8472
289	-12.8477
,[32	-12.85
part	-12.8507
dispens	-12.8508
▁seul	-12.8519
146	-12.8531
430	-12.8535
138	-12.8536
215	-12.8543
298	-12.857
255	-12.8587
250	-12.8611
��!���	-12.8651
196	-12.8654
ugi	-12.8658
,[13	-12.8665
329	-12.8666
sser	-12.8686
139	-12.8698
ale	-12.8698
313	-12.8704
399	-12.8705
ig	-12.871
�����-��������,	-12.8713
▁30-��	-12.8721
���������:	-12.873
148	-12.8735
149	-12.8751
issa	-12.8754
209	-12.8755
▁����������!]	-12.8757
▁brav	-12.8761
▁����������!..	-12.8764
▁commen	-12.8765
171	-12.879
227	-12.8792
serv	-12.8821
258	-12.8823
�-������.	-12.8833
416	-12.8844
153	-12.8845
226	-12.8846
sia	-12.8871
cht	-12.8874
▁nu	-12.8877
▁���������-��	-12.8883
343	-12.8889
▁ta	-12.8891
145	-12.8896
338	-12.8898
295	-12.8903
183	-12.8906
tri	-12.8913
rient	-12.8923
▁mer	-12.8927
327	-12.8932
����!�	-12.8937
orts	-12.8944
�[33	-12.895
urs	-12.8953
��-��?	-12.8954
�!..��	-12.8961
204	-12.8966
cr	-12.8967
225	-12.8967
167	-12.8973
�-��������,	-12.8992
299	-12.9009
397	-12.9021
▁���?�	-12.9046
194	-12.9066
▁allai	-12.9067
165	-12.9073
terre	-12.9075
▁�?��	-12.9081
�[1	-12.9081
398	-12.9082
▁parti	-12.9117
,[33	-12.9119
137	-12.9133
272	-12.9146
426	-12.9147
425	-12.9153
ivi	-12.9156
cer	-12.9169
168	-12.9174
cri	-12.9198
nde	-12.9212
228	-12.9255
166	-12.927
ct	-12.9293
335	-12.9327
108	-12.9332
202	-12.9336
433	-12.935
?..[3	-12.9364
.)	-12.94
136	-12.9419
▁ren	-12.9424
241	-12.9444
432	-12.9447
431	-12.9461
obe	-12.9466
dr	-12.9471
107	-12.9474
176	-12.9478
105	-12.9484
anc	-12.9497
(	-12.9503
297	-12.9509
394	-12.9516
281	-12.9529
March	-12.9534
�-������?	-12.9535
▁verre	-12.9537
200	-12.9549
169	-12.9549
224	-12.9552
328	-12.9557
266	-12.9559
pouse	-12.9561
104	-12.9575
367	-12.9595
353	-12.9611
14	-12.9617
▁sauve	-12.9628
162	-12.9628
321	-12.9631
201	-12.9635
441	-12.9638
203	-12.9649
102	-12.9651
esses	-12.9659
197	-12.9663
▁prin	-12.967
[38	-12.9689
,[6	-12.9698
170	-12.9701
195	-12.9711
134	-12.9716
135	-12.9727
.[16	-12.976
▁pou	-12.976
161	-12.9765
206	-12.978
�������-�������	-12.9812
246	-12.9812
ami	-12.9813
▁cass	-12.9821
393	-12.9828
▁prof	-12.9836
385	-12.984
ond	-12.9855
sir	-12.9857
386	-12.9867
mon	-12.9871
gau	-12.9876
390	-12.9895
▁doi	-12.9899
cuse	-12.9903
205	-12.9906
▁fro	-12.9926
371	-12.994
soci	-12.9949
141	-12.995
294	-12.9967
▁cond	-12.9968
191	-13.0003
237	-13.0025
185	-13.0035
276	-13.004
��-������.	-13.0044
307	-13.0056
?[22	-13.0057
249	-13.0058
�-	-13.0065
186	-13.0065
230	-13.0069
iller	-13.007
368	-13.0084
292	-13.0088
415	-13.0097
384	-13.0118
at	-13.0121
touch	-13.0148
306	-13.0153
tendre	-13.0161
351	-13.0185
285	-13.0193
238	-13.0201
▁�����������!��	-13.0207
▁quan	-13.0209
236	-13.0213
couv	-13.0214
116	-13.024
▁����������).	-13.0246
239	-13.0254
410	-13.0255
248	-13.0259
334	-13.0267
326	-13.0274
352	-13.0276
101	-13.0279
320	-13.0288
▁voudr	-13.0296
270	-13.0302
▁Ca	-13.0305
117	-13.0323
▁or	-13.0329
331	-13.0336
���-��.	-13.0347
349	-13.0369
▁dur	-13.0382
319	-13.0383
362	-13.0395
345	-13.0396
133	-13.04
382	-13.0404
115	-13.0408
▁dir	-13.0419
244	-13.0452
279	-13.0453
131	-13.0494
348	-13.0506
240	-13.0508
234	-13.0513
60	-13.0514
▁aura	-13.054
188	-13.0554
363	-13.0563
361	-13.0577
317	-13.0594
▁forc	-13.0616
?[3	-13.063
158	-13.0631
▁XXXVII	-13.0647
233	-13.0654
392	-13.066
315	-13.0672
nois	-13.0713
422	-13.0715
▁cha	-13.0715
231	-13.0716
▁����������?��	-13.0716
114	-13.0722
232	-13.0723
12	-13.0727
391	-13.0734
▁vi	-13.0746
ouver	-13.0749
290	-13.0753
300	-13.0773
154	-13.0795
▁to	-13.0796
X	-13.0801
���-������,	-13.0804
274	-13.0807
423	-13.0821
teur	-13.0822
-������.	-13.083
4-��	-13.0844
�-��?	-13.0855
����-����������	-13.0876
314	-13.09
273	-13.0913
▁ho	-13.0917
tis	-13.0922
ente	-13.0933
?[7	-13.0945
ges	-13.0955
den	-13.0957
271	-13.0982
118	-13.0986
147	-13.0986
322	-13.0994
[12	-13.0995
aill	-13.0998
ia	-13.1
err	-13.1005
381	-13.1005
198	-13.1013
407	-13.1032
265	-13.1041
nsulte	-13.1063
ispos	-13.1078
111	-13.1079
▁laisse	-13.1094
359	-13.1106
nace	-13.111
323	-13.1114
112	-13.1116
302	-13.1117
����-�����������	-13.113
355	-13.1153
122	-13.1158
rte	-13.1159
356	-13.117
▁XXXVI	-13.1178
439	-13.1181
[27	-13.1181
370	-13.1188
151	-13.1193
?[34	-13.1196
283	-13.1202
113	-13.1207
408	-13.1221
242	-13.1223
268	-13.1231
152	-13.1238
�����-����������	-13.124
121	-13.1242
?�	-13.1254
164	-13.1262
▁������������)	-13.1272
si	-13.1278
358	-13.13
11	-13.1325
-��.	-13.1336
▁atte	-13.1355
365	-13.1367
144	-13.1369
ava	-13.1389
243	-13.1395
192	-13.1404
264	-13.1405
366	-13.1412
378	-13.142
▁XXXV	-13.1435
388	-13.1455
battre	-13.1456
��-��!..	-13.1466
������������.	-13.1468
oc	-13.1501
endr	-13.1502
▁be	-13.1503
▁ind	-13.1504
293	-13.152
▁sent	-13.1521
▁div	-13.1531
291	-13.1533
369	-13.154
428	-13.1555
llez	-13.1556
163	-13.1581
port	-13.1581
262	-13.1595
▁������?..�	-13.1606
142	-13.1629
loge	-13.163
▁agr	-13.1633
-���������	-13.1655
no	-13.1657
261	-13.166
▁fam	-13.1663
402	-13.1675
364	-13.1691
�-��!��	-13.1698
pl	-13.1699
ttre	-13.1699
,[30	-13.1701
ers	-13.1711
▁perde	-13.1712
▁para	-13.172
▁dira	-13.1721
373	-13.173
403	-13.1751
itu	-13.1771
enver	-13.1772
nez	-13.1778
abl	-13.1795
con	-13.1799
use	-13.1803
;[2	-13.1831
�!���	-13.1841
210	-13.1864
▁anc	-13.1866
▁admir	-13.1874
po	-13.1893
252	-13.1898
253	-13.1924
251	-13.1928
▁���������]	-13.1936
▁������-��!	-13.1952
ten	-13.1956
eurs	-13.1961
mo	-13.1968
▁bataill	-13.1991
men	-13.1996
▁�������-�	-13.1998
218	-13.2006
���!���	-13.2012
tais	-13.2019
ntes	-13.2023
214	-13.2038
▁br	-13.2051
agon	-13.2057
▁20-�	-13.2064
▁ser	-13.2077
hui	-13.2083
▁��������!]	-13.2097
▁plai	-13.2112
▁env	-13.2125
tti	-13.2138
inte	-13.2152
ations	-13.2166
212	-13.2177
ob	-13.2178
ris	-13.2189
livre	-13.2191
exp	-13.2201
band	-13.2209
▁tel	-13.2219
▁for	-13.2233
-����������	-13.2235
ple	-13.2239
marche	-13.2253
6-�	-13.2277
jou	-13.2278
��]��	-13.2294
erge	-13.2296
▁������?�	-13.23
Moscou	-13.2303
▁donne	-13.2304
prouver	-13.2307
12-�	-13.2308
allemand	-13.2308
exige	-13.2309
dames	-13.2309
galant	-13.231
chef	-13.2311
fini	-13.2318
enne	-13.2322
dis	-13.2325
gar	-13.2325
orde	-13.2326
▁vou	-13.2328
faire	-13.2328
lui	-13.2328
mais	-13.2329
chevalier	-13.2332
blesse	-13.2333
donn	-13.2333
feu	-13.2337
bonne	-13.234
lie	-13.234
Alexandre	-13.2341
femme	-13.2347
entrez	-13.2348
riz	-13.235
1807	-13.2352
vois	-13.2357
▁Vi	-13.2359
die	-13.2362
camp	-13.2364
330	-13.2368
mach	-13.2375
dra	-13.2377
▁plain	-13.2386
intemp	-13.2387
vie	-13.2387
▁em	-13.241
▁rev	-13.2411
26	-13.2412
enir	-13.2413
issante	-13.2419
▁can	-13.2437
ave	-13.2446
incendie	-13.2447
�,[16	-13.245
tho	-13.2453
����-��,	-13.246
combatt	-13.246
hommes	-13.2461
onne	-13.2462
▁actuel	-13.2477
333	-13.248
oqu	-13.2494
aite	-13.2497
ionn	-13.2505
▁beso	-13.2513
fer	-13.2514
ilain	-13.2515
hin	-13.2519
[34	-13.2524
▁tier	-13.2534
▁derni	-13.2543
uv	-13.2545
vou	-13.2546
▁33	-13.2546
!�,[	-13.2556
▁charm	-13.2556
urtemb	-13.2564
oir	-13.2565
▁trav	-13.2567
cess	-13.2568
temps	-13.257
▁ouvri	-13.2581
riva	-13.2583
▁ram	-13.2586
ua	-13.2587
illeur	-13.2589
▁crai	-13.2591
▁jus	-13.2594
ttend	-13.2595
bles	-13.2598
rds	-13.2599
olon	-13.2605
sign	-13.2605
ort	-13.2605
stie	-13.2606
opin	-13.2607
▁atten	-13.2608
▁Char	-13.2608
glise	-13.2608
▁sacrifice	-13.261
arfait	-13.261
Espagn	-13.2611
rigand	-13.2612
tourn	-13.2612
▁descendr	-13.2612
sembl	-13.2612
seigneur	-13.2613
Viv	-13.2613
agement	-13.2614
▁aff	-13.2614
▁ferm	-13.2614
ntend	-13.2614
arqu	-13.2614
hor	-13.2614
atrice	-13.2615
ommen	-13.2615
oups	-13.2615
▁sacrifi	-13.2615
▁popula	-13.2615
hom	-13.2616
▁continue	-13.2616
▁servi	-13.2616
appell	-13.2616
▁Mosco	-13.2616
arole	-13.2616
rince	-13.2616
bourgeois	-13.2616
▁nouvel	-13.2616
errible	-13.2616
heit	-13.2616
huma	-13.2616
mpagn	-13.2616
ogn	-13.2616
▁��-��-��-��!	-13.2616
Allema	-13.2616
instru	-13.2616
person	-13.2617
Nap	-13.2617
magn	-13.2617
▁terri	-13.2617
▁reco	-13.2617
▁distri	-13.2617
mber	-13.2617
nad	-13.2617
▁belle	-13.2617
toire	-13.2618
plo	-13.2618
▁porte	-13.2618
▁saint	-13.2618
vard	-13.2618
cor	-13.2619
irect	-13.2619
Cur	-13.2619
ssage	-13.2619
ahi	-13.2619
andez	-13.2619
hie	-13.2619
▁prov	-13.262
chemi	-13.262
orce	-13.262
pect	-13.262
ujour	-13.2621
pin	-13.2621
gal	-13.2621
ouj	-13.2621
eite	-13.2621
bert	-13.2621
uatre	-13.2622
amais	-13.2623
appelle	-13.2623
▁red	-13.2623
uart	-13.2624
agra	-13.2624
oint	-13.2624
▁fu	-13.2624
osc	-13.2624
ncore	-13.2625
gea	-13.2625
ples	-13.2626
oura	-13.2627
gte	-13.2627
ttent	-13.2628
Ch	-13.2628
▁inc	-13.2629
Asi	-13.2629
ecomm	-13.2629
▁enf	-13.263
ept	-13.263
ber	-13.2631
▁arme	-13.2631
emain	-13.2631
▁milit	-13.2632
ousin	-13.2633
taill	-13.2634
fre	-13.2634
▁182	-13.2634
rlo	-13.2634
▁char	-13.2634
mant	-13.2634
ito	-13.2635
nati	-13.2636
act	-13.2637
▁pris	-13.2637
russ	-13.2638
nerai	-13.2639
.[40	-13.2641
▁cho	-13.2641
rier	-13.2642
mmu	-13.2643
faite	-13.2643
▁fai	-13.2643
▁bout	-13.2645
hen	-13.2645
▁pers	-13.2647
▁ress	-13.2649
rir	-13.2651
uh	-13.2652
dern	-13.2652
emm	-13.2653
spi	-13.2653
neur	-13.2653
▁mout	-13.2653
▁prou	-13.2656
ndes	-13.2657
rate	-13.2657
uz	-13.2657
cc	-13.2667
hier	-13.2668
eve	-13.2673
▁sau	-13.2675
ul	-13.2678
nit	-13.2682
▁dev	-13.2684
aint	-13.2686
tez	-13.2693
.��.,	-13.2702
▁sav	-13.2703
▁jam	-13.2719
nz	-13.2724
taire	-13.2762
qua	-13.2767
bel	-13.2773
▁rest	-13.2773
rav	-13.2774
ala	-13.2781
▁mau	-13.279
oe	-13.2792
▁jeu	-13.2794
ure	-13.2794
roues	-13.2798
ieuse	-13.2801
▁44	-13.2802
▁���������-�����	-13.2805
aine	-13.2807
▁vil	-13.281
▁perm	-13.2811
vi	-13.2815
▁dite	-13.2831
16	-13.2838
com	-13.2839
▁2)���	-13.2857
▁Me	-13.2859
▁�-�-�	-13.2875
souh	-13.2875
▁mu	-13.2875
ele	-13.2878
aire	-13.288
lu	-13.2901
soir	-13.2908
rgeois	-13.2917
▁43	-13.2944
hou	-13.2972
��.]),	-13.2974
sich	-13.2984
sm	-13.2986
▁tri	-13.2989
liti	-13.2997
���������),	-13.3007
ndais	-13.301
▁port	-13.3013
▁sc	-13.3028
tels	-13.3051
▁ob	-13.3058
▁lie	-13.3068
ust	-13.3076
th	-13.3086
▁inte	-13.3091
▁38	-13.3105
���.)]	-13.3148
▁41	-13.3164
���-��?	-13.3171
▁000.	-13.3179
inten	-13.3184
▁19	-13.3188
▁34	-13.319
▁14	-13.3216
uc	-13.3217
tise	-13.3235
41	-13.3256
▁37	-13.3275
▁ten	-13.3278
������!..	-13.328
▁��������-�����	-13.329
sez	-13.3294
![13	-13.3331
▁23	-13.3342
▁178	-13.3377
▁27	-13.3433
▁len	-13.3434
▁main	-13.3443
00	-13.3466
▁��-����!	-13.3478
��-��!	-13.3504
▁ent	-13.3508
������-������	-13.3513
![7	-13.3534
�,[1	-13.3534
▁36	-13.3535
▁39	-13.3536
tente	-13.356
▁go	-13.3564
celle	-13.3569
).]��	-13.3609
,[38	-13.3614
avai	-13.3624
▁��)	-13.3638
sche	-13.364
▁emp	-13.3667
▁86	-13.3685
gement	-13.3706
▁��-�������?	-13.3775
▁q	-13.3782
oupe	-13.3789
▁imp	-13.3819
▁an	-13.3828
▁66	-13.384
���-�������!	-13.3861
▁3)��	-13.3872
urop	-13.392
▁oc	-13.3936
▁exp	-13.3947
������.)	-13.3957
?[19	-13.4015
▁���?..�	-13.4034
��.)]	-13.4052
.[6	-13.4059
������-��	-13.4063
�):	-13.4071
▁enc	-13.4106
ouve	-13.4161
.[26	-13.4178
raient	-13.4197
▁��������!�	-13.422
�[36	-13.4234
▁ter	-13.4235
opr	-13.4262
vrais	-13.4298
���-�����������	-13.4319
▁sol	-13.4376
,[37	-13.4415
▁ennemi	-13.442
-��������,	-13.4436
���-����������	-13.4452
▁che	-13.4477
sc	-13.451
��?..]	-13.4534
eil	-13.4551
▁rep	-13.4574
▁regarde	-13.4582
07	-13.4582
▁tou	-13.4622
mbourg	-13.4632
34	-13.4657
ane	-13.4665
21	-13.4712
ination	-13.4774
route	-13.48
,[34	-13.4821
![4	-13.4916
�����-����	-13.4954
lus	-13.4984
irer	-13.5018
19	-13.5019
�180	-13.5036
,[28	-13.5056
37	-13.509
chant	-13.5113
��-������?	-13.5155
ou	-13.522
32	-13.5247
-�-��!	-13.525
!�[2	-13.5253
���]��	-13.529
nc	-13.5295
▁�����-��-�	-13.5308
▁��������-����	-13.534
▁mange	-13.5348
▁1)�������	-13.5388
��!..��	-13.5411
▁cou	-13.5417
▁senti	-13.55
chin	-13.5501
,[17	-13.5522
,[41	-13.5634
vin	-13.5665
▁sui	-13.5694
vrait	-13.5803
ba	-13.5811
[2	-13.5843
����-�	-13.5854
�.]),	-13.5867
������-�����	-13.5911
tr	-13.5941
38	-13.5954
������?..	-13.5979
Es	-13.6043
fond	-13.6069
▁������-�����	-13.6083
!���	-13.6102
.[34	-13.612
onti	-13.633
uche	-13.6342
itain	-13.6352
▁�-�	-13.6421
▁ga	-13.6437
Voi	-13.6467
▁�?����.	-13.6481
▁������-��,	-13.6524
�.��.,	-13.6595
nis	-13.6606
����]��	-13.6606
▁�������.)	-13.6614
▁��������-������	-13.6672
���������?	-13.6698
▁����?..�	-13.6723
����!���	-13.6808
irs	-13.6838
▁�����?�	-13.6895
[6	-13.69
[21	-13.6903
▁princ	-13.6951
▁Mar	-13.6953
�?..]	-13.6967
lin	-13.6978
-��!	-13.7025
ise	-13.7036
▁���!]	-13.7042
ars	-13.7118
▁����������-��,	-13.716
dieu	-13.7161
-��?	-13.7175
05	-13.7196
allai	-13.7319
▁repo	-13.7346
▁2)������	-13.738
99	-13.7399
��-�������!	-13.7429
mpl	-13.7531
ict	-13.76
▁������-��������	-13.7652
?[25	-13.7675
!!	-13.7691
▁ha	-13.7814
�-����,	-13.7819
▁ve	-13.7891
▁dem	-13.7936
?[29	-13.7995
ipe	-13.7996
dres	-13.8021
�����!�	-13.8089
▁ra	-13.816
pouv	-13.8345
▁sal	-13.8369
nnes	-13.8392
����-���	-13.8414
▁mie	-13.8534
▁march	-13.8663
▁pop	-13.8773
▁��!..�	-13.88
▁���?]	-13.8854
▁�!..��	-13.9104
,[25	-13.9126
��������?��	-13.9159
▁��������!.	-13.9207
dec	-13.9229
����-�������!	-13.9243
▁faisai	-13.9288
-����,	-13.9519
22	-13.9629
auv	-13.9689
pag	-13.9766
180	-13.9831
nq	-13.994
.[33	-13.9979
